016
766
04C
589
72F
159
75A
129
0C2
013
664
16C
01E
6C7
782
023
780
074
637
7F0
508
6E1
7E1
02C
03B
75F
12A
78F
5F8
63C
648
7A2
0CB
7AD
73A
6AE
55A
0FB
7BA
6F1
004
0C1
6FB
712
6DF
759
73F
061
23F
6BB
759
6F4
43D
78A
75C
7C0
137
042
205
7F3
7FE
748
754
0E8
6FB
0C0
04C
723
7D2
768
769
092
042
108
7A3
75D
1A0
752
6CC
094
080
056
70B
62D
195
029
754
677
077
7CF
717
08F
04D
7D0
072
14E
7D0
765
7AE
713
199
75F
741
552
525
593
661
108
062
159
621
6AD
7D9
791
01B
018
080
765
7E9
75D
7FA
6A8
586
056
6AD
7A8
7BA
793

