7E1
7D0
797
7AA
771
7C0
7EE
79D
771
002
7E3
058
085
7CE
048
76F
00D
019
08F
048
76D
7BF
7A8
06D
007
7FB
004
7AD
777
07D
057
7AF
094
02E
7B3
7AF
7BF
02D
069
080
054
786
063
7C8
779
086
79C
7E0
7EC
7A3
7A0
04F
7A9
05A
788
7A3
089
77E
08E
7CB
77E
7EF
7B5
043
7CD
047
098
77F
084
05A
799
78B
00A
078
7E9
7E0
78C
079
76C
05D
7BC
006
03C
78F
78A
7C1
7D0
773
036
042
013
02D
062
08F
7D3
7FA
035
09C
7BB
7A5
7F4
041
060
02B
08A
02F
77E
7CB
05C
000
787
7EC
007
789
7CE
061
046
7A9
064
01B
026
761
020
018
045
7DE
775
047
685
747
791
78D
7CD
74B
7E9
008
7A5
02D
789
7EB
033
76C
7AF
7C3
008
065
06F
7EB
71C
059
797
0B4
03A
739
714
769
7DA
02B
01F
768
02A
779
7D4
070
09C
75D
010
76B
010
7CA
02F
0B2
75D
022
7CC
0B4
789
03E
773
77F
077
7A3
06F
6BC
092
02C
733
78A
796
73B
765
7CA
793
7C0
09B
056
7D6
788
026
053
017
014
010
7A4
7F5
6EE
076
728
7DF
051
727
002
033
78F
78A
7D6
72C
7CE
069
08E
039
7C8
78A
7AA
07A
076
022
08A
074
7E4
00D
07D
72A
7CA
057
700
068
76C
72E
103
01B
00D
005
725
006
094
7A3
070
729
7AC
034
7ED
782
7C4
07E
79C
7EB
76E
729
79A
780
039
700
784
04F
7FD
7A4
0A2
00F
772
784
02F
78D
022
746
770
018
05F
77B
7C0
00A
7D7
051
6EE
022
7A3
7D2
78D
05E
003
725
7E1
7E8
794
700
732
7A0
764
078
7D8
7CF
00A
759
6D7
03E
7EC
054
040
02E
023
7D2
723
777
70D
07A
05E
09D
7ED
7F4
5F5
7CD
74B
673
038
0CB
7F8
6A5
796
032
079
7A8
74C
7BF
7AC
006
7CE
7EC
6D6
7AF
7C2
038
087
78F
708
7A6
742
7D1
055
03D
7F5
074
03B
02F
003
654
05A
7FF
6F2
742
700
7E8
001
065
02C
033
001
7DC
799
04E
739
7AE
759
77B
092
015
076
05A
771
054
728
0B9
74B
780
75E
7F8
784
018
7D8
7AB
05D
017
799
01F
7F2
076
091
05A
797
7CF
7F8
03F
763
020
79B
7FF
083
068
037
00F
7B3
090
7F7
02E
78A
04A
7AD
098
772
05E
7F3
034
001
058
79F
055
063
76E
7E7
067
76A
793
08D
7D7
7DD
7FD
7D3
7B8
084
089
79D
7DD
7BB
7FF
7F9
051
045
7BB
78A
055
7F9
03D
76D
03B
784
08E
052
047
028
7C1
048
76A
7A7
7BD
775
7CD
7F8
786
01A
764
7BC
009
055
034
067
7D6
05B
765
7C0
04E
025
7EE
7D4
77E
7EF
7D3
035
041
7F8
08C
7EB
7FC
77E
067
7CB
004
782
084
05F
020
067
75E
090
079
053
053
7A0
76B
078
7A6
7E8
023
7AC
75D
7F5
088
7D0
037
04B
7C0
7DB
061
08E
06F
773
7F8
777
05A
7D3
7FC
072
07C
034
087
7E3
074
021
79E
788
08B
7BD
7FC
7A6
034
032
7B5
774
00A
76E
083
7D2
792
7B1
049
01D
06F
03D
780
7FF
03D
7D5
7D6
03C
092
02C
7CF
03F
078
7C6
7EE
037
042
77E
0A3
027
762
7BF
7A7
099
08F
781
7EB
76F
073
01E
044
06E
085
08C
7C3
7CB
7A6
01A
76D
7F8
061
005
7E8
01F
08C
7A7
04B
005
78E
7FD
7EF
041
030
06E
060
051
02C
08E
005
7B9
7DC
016
7A3
01A
7A6
04F
7CC
785
76F
025
7F0
066
760
7F4
044
047
082
03B
06B
074
059
76E
7F7
03A
08D
7E8
7C2
001
775
05F
002
786
020
00E
796
03B
7D1
05E
024
080
7B4
06D
05E
057
7AB
046
018
7D5
067
7FA
022
766
7DD
789
0B6
7FF
078
7AC
782
7B1
7AB
78E
03C
7B9
79C
097
06E
796
7EF
79C
093
022
793
08B
76C
00C
081
792
7CF
04E
7FD
02D
7F3
79C
03E
797
79C
04E
015
060
777
07A
7FC
02A
7F4
789
7C8
7BC
07C
095
78F
7FC
044
784
06D
051
074
7A9
050
7EC
006
01A
78C
036
7B3
087
07B
7B1
78A
7A2
78B
068
7F1
797
79D
077
7D1
078
7FB
068
7FF
77E
071
037
035
7B1
010
7B7
7BA
075
019
7BF
7F3
006
00A
00E
015
060
02C
7CD
010
057
791
027
7C8
083
05E
7D9
776
7DF
77F
792
02C
000
7E8
093
062
07C
7C6
79D
098
7FC
79D
07B
7A2
7BF
05D
0A1
072
7EA
042
080
000
772
07C
7C7
7B1
7D7
098
7DE
030
770
7A6
7DF
03E
05A
7BE
077
03F
095
7AD
7FC
7F3
039
76A
072
779
780
780
073
00A
79B
06A
786
7D4
7AB
762
060
060
7D1
005
06A
777
027
7D7
7A5
059
7E9
7CD
002
00E
047
7AB
053
000
7B0
7AC
046
79D
7BC
776
08F
071
7E4
042
084
7BD
7EF
03D
7D7
780
081
031
081
7CC
769
7E4
00D
7F8
022
024
03F
04C
021
092
7CE
04F
7E3
797
7DD
7DA
78C
78D
053
01A
7A3
7FE
76C
06B
7AE
006
08D
092
022
7B7
7CC
078
7DB
029
7D5
77F
042
00B
7E0
7EC
760
031
043
7BD
072
7EA
7D6
062
7CD
7F7
794
062
000
78A
7EC
015
7C9
023
035
048
7DA
07F
788
07A
087
008
7FF
032
788
7E5
76F
041
7E0
04F
027
771
020
090
023
7C4
7FF
7E8
773
02B
00A
019
79E
7BD
770
07A
044
013
032
03B
7F4
006
06C
7BB
7B4
07C
7CE
768
02E
052
7B4
7C3
01B
027
075
07C
063
7E6
071
00C
7D5
796
795
79E
7C4
7EA
7BB
78B
77D
799
7EC
003
786
030
08C
7AA
7F4
7E2
770
78E
02F
7E1
793
00C
78A
79C
78F
7C6
05D
7DF
08D
084
08E
040
7DD
7F2
06E
77D
7FB
018
084
063
781
03B
028
7CE
085
7C8
7C7
042
006
7C3
084
02A
7CB
7C6
7C4
7F3
7C0
7AB
786
090
7D0
034
095
095
052
77C
08D
082
01F
04C
789
071
048
7EE
072
7EC
06E
7E2
776
06F
07F
07D
018
000
78E
03F
091
002
09D
00F
04C
05D
06D
077
05D
775
044
75D
7AE
08C
7F5
031
786
023
05E
7D6
7FD
7C3
08A
01C
791
7C4
7F9
7A4
7D3
066
7D8
010
7B8
7A4
07E
064
051
7F9
7FD
08C
7C6
063
030
7BA
7E6
01D
7D4
77F
060
086
0A2
78B
7F8
79A
77E
7B7
7FC
787
7C1
7FB
7DF
03A
7AD
783
7A4
049
793
769
073
012
7C5
07B
7FF
7EA
008
02A
795
7D4
074
7B7
030
030
01C
02E
089
055
06A
76A
781
044
75D
7C5
034
01A
7C0
047
05A
788
767
05D
061
00C
030
094
016
061
76A
7A8
026
764
059
06F
028
766
081
768
08D
046
04D
7C1
036
7A5
05D
7A6
02A
07A
00F
035
013
084
7D9
089
01C
009
04E
011
78F
062
095
04B
7ED
06A
765
7FE
7E4
7F4
010
07C
795
78C
787
768
01E
03C
76A
032
07A
775
7BA
054
7C2
002
76C
05F
079
02C
7DA
7B7
7B2
029
76B
058
098
005
7B8
773
7CC
7A4
77E
06B
7DA
047
78A
79E
044
7DE
7A6
7A1
78D
77A
7BF
001
06A
027
04D
7E6
7C0
046
08A
792
77C
7B5
071
025
7B7
7D3
7AC
775
7EB
087
7C2
070
09B
075
0B3
029
7A2
783
79F
098
7D5
782
7AC
787
7B3
092
78D
027
036
7E7
074
7A2
023
04A
7F3
7C4
7DF
7D9
793
79E
08E
776
777
7D4
795
7C6
7DC
053
06C
061
76A
011
070
743
017
027
787
7AA
77A
7CF
07A
00C
069
039
029
7B4
7C9
76E
01D
056
7BB
031
05D
03C
02D
071
766
04C
779
78B
7BF
029
7C0
06B
044
789
770
075
027
7B9
036
02A
74C
7A0
7B9
01C
7DD
050
77C
771
01F
02C
767
012
76B
061
7A5
7ED
04B
791
02C
026
770
7AF
04B
7A6
00F
090
7FD
02F
043
799
031
028
7E9
077
06B
058
041
7A9
066
007
08D
7AF
7FC
08A
79E
066
76F
7A1
07E
78D
015
02F
771
772
083
018
066
760
7D4
7EA
7BB
025
086
7D5
7D7
7EA
094
060
7DD
772
090
02B
7A1
776
014
08F
00E
7FA
7E1
019
7D2
781
79A
06C
033
031
7C2
7A9
002
7B5
076
7A5
09C
04F
7A4
07B
085
766
040
7BA
061
7A6
047
033
7DB
011
012
7E9
79B
09C
05A
057
7C6
00F
7A4
065
050
061
04B
762
7FD
79A
761
7E2
090
768
781
017
76F
767
02D
002
7AB
040
796
066
072
791
7B7
005
090
07F
7E8
7C2
770
788
7C4
7FD
003
00C
7E7
062
7B3
031
7A9
02E
015
065
078
02F
79F
77B
771
03C
785
011
784
793
7B6
7F6
01C
771
78A
78C
7F0
7A6
007
7C7
02A
0C8
002
07E
06F
045
059
798
7E5
7AC
7C1
794
073
7C7
7D3
028
79A
074
046
7CB
770
0B3
00B
073
771
057
039
7DA
07C
09F
786
024
7CA
031
7D3
7A7
03F
087
02C
791
086
7D3
7A8
000
086
7B3
7F9
075
07B
772
7B9
09D
08E
7E4
001
064
009
7AA
058
054
7A7
07F
790
042
02F
01E
7E6
781
08C
7CB
7FC
776
029
0A8
05B
0A8
7D9
009
7F9
09E
0C3
013
762
02D
7AA
7EA
7DE
742
768
058
025
7E8
069
05B
087
01C
7B9
775
02E
7A8
7D6
793
051
0A4
052
776
03A
012
030
085
7AF
7CD
00E
791
7CA
795
7C4
046
10F
044
07F
77C
7FD
7B8
71D
7CA
12C
025
7B8
7BB
015
062
729
02B
792
7D2
7CD
777
09D
7A1
790
026
047
02F
024
736
7AB
00D
763
7E5
7BD
051
7D4
073
798
09F
7AF
702
7F3
7F3
074
78B
77F
7BF
04A
790
02C
768
034
780
059
071
7F1
7C8
7DA
02D
0B4
772
017
029
704
71D
7F9
737
7DF
79F
79F
039
72D
76C
7D0
765
7DF
094
7F5
796
045
7EF
7B8
72C
005
027
78F
795
75D
7D6
7AB
70D
02D
066
028
76E
02E
7D5
780
712
785
019
782
74C
788
7FA
02F
002
725
7DE
041
056
7D4
7BA
77B
7B0
6D4
033
034
792
7A0
7E6
6FA
7CE
757
75E
7B1
7DB
7E0
7AB
793
7A0
775
7C1
6EC
6FC
04A
023
697
7C5
7AF
7B7
7F8
7A7
07F
0D5
0AB
02B
7C2
760
006
7EE
070
06D
78E
799
7D5
7A1
004
746
7D9
02C
7BE
6E6
096
0F6
77B
0A3
044
0B9
06D
09A
6B5
017
097
7A1
001
025
752
070
765
04C
755
7C7
15A
7C5
799
71F
028
0C1
7FD
7C6
0E0
04D
050
773
151
032
736
092
79E
60F
058
05D
74B
7F9
09C
7EC
782
74B
7A1
71F
00E
795
75C
7DE
736
783
074
76B
6FE
7EB
0D2
723
673
793
798
7A8
020
034
79F
01C
7A0
04F
7C3
069
7BE
099
06A
79D
0A2
002
7D1
061
6EB
7BE
005
7B8
7DA
000
77A
03B
7E9
78A
094
04A
65F
04B
04C
717
728
03C
75C
7F1
7B7
084
769
07D
012
764
030
06C
060
02C
788
059
7FE
7F6
7AE
79E
7F1
071
08F
02D
068
021
7A0
023
006
7A1
016
02C
7D4
024
042
7A8
052
7E5
7E0
071
7A2
7A6
02A
00E
7B8
051
78C
7A4
07D
011
795
047
75A
7E0
77C
769
799
074
05E
7CF
091
78A
78C
007
05C
039
7FD
03D
004
05B
7BA
767
7B5
067
7BA
016
020
7EE
795
7E0
7DC
786
075
7C3
7E4
055
774
7B6
00D
05E
030
7EE
055
08B
02C
006
062
779
016
094
01E
023
7F6
798
023
07D
07B
7A8
075
763
7CB
036
056
7FE
028
76F
094
06F
011
024
7F0
065
7DF
060
06F
092
7F7
090
7EF
069
7A4
019
7B7
05C
7E3
79C
04D
798
005
026
7B5
018
7B0
012
767
029
7DD
79C
08C
01F
06B
010
043
79D
7D8
060
04C
79B
7AB
7F6
053
7E3
7B0
7B5
071
05D
089
066
78F
7EA
79B
7D1
7A9
01B
77F
7AD
03F
072
7B5
067
792
7F6
751
032
7BC
779
7F3
04F
7A7
7B8
095
018
7DD
05E
080
08A
7AC
7BC
007
7BA
777
08D
08E
7B0
064
7A4
7F8
02B
00F
7DA
02C
7C5
035
042
7D4
7EB
778
7D3
008
0A7
78F
7CC
025
7B0
03F
7B0
005
766
7F0
754
7B4
099
074
061
7FB
04C
007
058
7BD
09E
004
7EC
7CC
08E
051
0F4
7FB
055
7C5
01C
06A
756
7B2
78E
06A
05C
7CE
079
09A
07A
776
7A1
045
7FE
091
04D
015
78B
7E4
004
76B
7C8
00A
7B3
7A1
09C
022
7AC
7C0
08B
7C2
7BF
032
09C
02D
7B2
7E7
79F
79C
087
7C8
764
7B0
7E7
03A
789
76E
7F9
04E
7EF
06D
7D8
7E8
037
078
007
77E
021
04C
07C
096
02F
016
099
006
089
09A
7C0
7D3
7F9
76F
031
785
07C
046
785
08C
7EE
067
792
7F3
058
090
068
031
03D
089
02D
794
77E
795
03A
090
063
096
7B8
7F8
01F
089
093
793
065
019
05A
77F
001
081
098
06D
79E
092
7EF
7E2
049
7B7
002
7A2
7EF
79B
088
062
776
787
005
7FC
792
075
7A9
03A
05C
041
792
008
02C
037
060
77E
0C2
790
0AB
00A
084
7F9
703
0C1
06A
79E
0FB
00E
717
76E
053
74B
04E
046
7BC
719
00B
7A5
059
08F
087
7F6
66A
7DB
05D
056
77D
012
7D5
774
714
74C
039
793
7D7
7E1
782
6FF
783
039
757
06C
700
7C0
71D
02C
09D
06A
7E9
015
7E1
7A5
0AA
08F
7C2
7B7
046
797
7D8
746
72F
016
012
753
740
01D
776
73E
086
722
0F0
05D
0E1
0E1
074
753
12C
043
753
0BF
6FC
7F3
019
01B
0D6
708
7AF
728
05A
76E
09E
12B
721
741
72B
70A
705
09D
773
01B
034
761
7F9
7C8
78B
064
78F
7B3
027
7B0
7C8
032
091
7FE
012
08B
718
07B
769
0A8
049
7CF
783
09A
08F
7AF
096
062
03D
768
7ED
03D
07E
7C2
070
064
045
7D7
04A
7D3
014
796
770
042
014
02C
7AC
02D
029
08D
767
052
079
79C
05C
01E
06D
7F6
054
008
070
7FE
069
782
004
06C
04E
056
004
083
04F
79F
7FE
7AA
01A
02D
04A
046
7D7
056
03A
044
78B
06C
009
069
7F2
78A
05F
042
7C1
795
7D4
7B0
774
011
023
77B
799
7F4
01F
7AB
046
7AE
7E6
7B0
7E5
06B
7D0
022
027
047
04C
090
005
7F9
092
7A2
008
7EA
78A
066
06D
07E
03A
06E
7CF
052
7DA
071
774
003
79F
7E7
054
005
789
090
7C5
7F1
7AB
7A2
01F
01E
093
08E
7B4
7CC
07F
06B
07B
042
042
075
7F4
781
795
018
7BA
078
03A
07F
7E3
7EE
7AB
081
033
060
781
060
75F
786
00D
777
7DF
776
7EE
78D
7C4
049
09A
04B
03D
029
7F3
00C
7D4
019
066
7D4
798
03C
7FF
022
7F1
76B
049
0A2
056
027
7A0
098
7D8
013
007
777
098
08D
093
763
06B
000
784
794
79E
77A
06E
09C
04F
7A0
763
084
004
777
7E0
067
792
77B
7D7
030
028
768
00B
015
7B6
05B
094
767
7D8
012
783
7EA
01A
055
7DF
7A9
75F
77D
01A
765
7E4
03B
02B
015
00A
03E
7FB
7F4
069
09C
7A0
01C
77C
78F
7A4
02A
047
76C
084
04C
7BF
771
030
7E9
01B
014
7E2
79D
7DC
032
794
7A7
09C
79A
016
04C
7AA
086
062
023
098
02E
056
790
049
774
09B
774
097
00E
05E
06B
011
004
051
031
7F0
7AB
7C7
791
09C
092
7C8
06E
7B6
7BF
7E4
7C8
76A
7E6
7B4
09C
037
751
7B8
7C7
7F0
7D6
7F4
04A
00B
093
052
03E
04F
004
00D
7C2
792
024
0A9
052
06B
02E
7F5
01E
7CD
7CA
058
001
06A
7FA
7C4
03F
03A
060
7C1
783
7F6
7F6
7E1
00E
79B
7CF
029
767
00C
7CB
7D3
770
049
08A
7CB
7B5
7DF
02E
032
031
7FD
049
02C
07D
7BE
79D
77C
066
0A5
7E1
7D1
770
0A7
785
7BB
084
7B0
027
082
7A6
051
7C2
79D
0C9
003
048
7D3
778
054
0B6
07A
779
073
019
090
7DF
03D
070
027
77B
060
056
006
7E9
071
7D3
7E6
773
039
030
7CF
79F
7B7
04C
78A
06B
03E
01E
75E
01C
7FE
7BA
052
070
774
7B4
03C
7E4
096
784
7A7
77E
787
020
031
064
08A
7CF
008
795
7F5
000
04F
7EA
02D
004
080
7B4
06B
7FA
03E
767
06D
024
7DA
782
076
054
083
05C
7AE
027
7B8
029
7B0
7FE
76A
786
086
048
7BC
064
05D
058
027
7C3
7FB
7B0
088
7D2
067
7AD
077
796
794
75E
03E
028
787
7F4
782
7B0
04F
06F
045
78E
7B3
78F
7ED
7BA
777
02D
7C9
7F4
00C
7D7
006
7CB
083
093
02D
7D3
77B
043
791
00B
7F6
767
044
063
095
7FE
013
028
7EF
071
038
00B
7B7
7D7
7F1
775
07E
08E
76B
79C
7B5
03F
7F2
08B
073
024
7D6
7DA
03F
7DE
78A
074
7A3
7CD
764
017
773
78E
01D
7CF
7E7
01F
7F8
779
7CC
064
78F
082
01B
020
7D2
007
003
025
03D
063
04F
021
07F
78A
766
011
090
093
096
03D
79A
072
066
781
770
760
05D
784
770
7E4
029
763
76E
02A
066
779
02E
7F1
781
7C8
783
7DE
7EF
788
7CA
7EB
03C
019
023
7B2
79D
7B0
788
76B
060
7F2
007
03D
01E
098
092
7C6
781
047
7A5
7F2
085
014
071
016
035
788
023
7D4
01E
044
04B
7E9
7B4
04D
7AF
038
7E7
07E
7FF
7D7
7A2
065
06B
79C
7E4
095
79B
79D
082
7F1
07B
7A5
7D5
7C4
079
073
7F0
7C0
7A6
028
766
08B
072
061
096
02D
745
789
032
799
02F
7DB
021
05B
7C6
013
030
02E
7A3
010
7E7
00D
059
7D3
065
7FF
7CD
001
7EB
777
796
7F2
7B0
06E
039
7BB
7FF
792
772
027
7A4
023
7FF
780
7B8
7ED
7AF
7F7
00F
7AA
09B
07C
7B6
06F
7B0
058
784
79F
788
7EA
073
76D
00A
094
01A
035
07D
034
7B5
056
7B0
081
7BE
04E
062
00B
7A3
7C9
7DE
023
78D
78D
00D
05A
7CF
785
044
79D
059
091
058
7C3
79D
028
086
013
7C1
04F
078
00A
005
7BD
7B0
76A
7DE
7DE
7F7
009
06B
7F3
022
799
789
000
7A6
069
7A6
005
7F7
7BC
7C8
04E
7A9
05F
02E
02D
083
7BB
077
7ED
7F1
79B
05E
010
7F2
7DC
7EF
7A3
788
045
77B
088
078
001
06E
089
7DF
01F
79F
055
7E5
7DD
79B
050
01A
073
0A0
7CD
000
7E2
099
79A
790
065
778
76F
7B5
774
08F
7C0
013
7A6
006
787
766
7E6
05F
092
096
7C5
002
00F
7D3
08A
002
008
005
094
056
02F
7C4
7EF
048
7FF
088
761
7F1
77F
05C
793
011
084
7B9
077
7D5
016
7EF
7DB
06F
7AE
07B
785
7B0
05E
090
029
04A
095
7DF
7F8
7C2
092
08B
7B8
7EA
07E
01E
781
7C3
074
783
7E6
780
04D
07C
03E
06D
7D8
75E
03C
034
016
0C6
020
085
7D9
777
79E
7F5
07E
01B
0D0
7D0
7F7
7B6
7C4
094
070
7EF
094
7B8
77D
7C7
01F
000
7F9
7D8
061
03F
7FE
79C
78D
00C
009
7B3
026
08A
061
7E1
74E
785
08C
067
797
7DA
0E5
02E
047
005
090
012
033
786
76C
040
135
021
7C1
79D
0A7
089
070
7CA
088
045
0D4
7D4
0E0
09B
088
762
017
00A
7DB
7BE
06D
086
099
7C3
7EB
056
77C
0AB
7A2
025
77B
7DA
7BA
02C
7D8
78D
7A3
006
7BB
787
7CF
7E9
030
771
053
7CB
7B9
7ED
7CD
7D9
125
0BC
056
059
745
7F8
738
7A5
7BE
01E
7E1
096
0A2
797
7B9
085
7DA
04B
023
790
790
074
7E8
7CE
006
08D
00D
785
083
75F
078
07B
7A9
7F7
026
096
7CA
055
76D
082
78C
088
7CD
7E3
007
027
059
7F6
7C8
001
044
07F
7CF
7BB
793
7DD
01D
7FB
018
028
7C8
793
071
03B
057
08F
7B1
7CC
790
7A5
7BD
086
799
7ED
7C2
76A
089
017
049
053
011
7DD
7E0
7B4
779
03E
049
778
077
7EF
7B2
081
03B
030
012
7F3
02C
766
7AC
07F
7E6
7F3
013
773
075
7D1
774
088
004
045
78D
098
034
77E
053
032
085
015
7CD
021
05F
797
033
7AB
03B
7A4
7EF
7B3
7F6
7F8
05D
7AF
06B
06A
054
7D6
002
79D
7CF
7EC
7A6
002
026
76E
7AC
08F
7F0
006
735
03C
7F5
0EA
06C
081
009
748
09C
055
75B
7CF
726
790
785
768
742
76B
059
05B
0A8
7CE
00B
763
07D
7F9
7EB
771
01E
73E
742
063
07C
071
7BF
7E8
76F
053
0C5
7DA
07C
728
045
00E
029
7CC
01F
7B4
7D3
7E4
7A9
772
06D
763
090
07A
100
00C
073
7B1
052
736
73E
7A4
78F
03D
7B6
782
04D
779
00B
7B9
79B
7E2
7E9
789
035
072
065
767
78F
001
7DC
74E
069
015
7D2
018
7B3
716
0D1
7E0
7C4
0D2
72E
07F
78C
062
0E0
00E
7A6
719
05F
6ED
7F1
083
7E1
05D
02A
7D6
725
765
783
7A6
772
7DE
7F2
04A
7EE
007
797
7AD
022
7C0
07D
0E6
01A
0E7
776
021
6EF
795
78F
091
7B2
008
06E
78D
019
7F2
08C
056
007
7B0
7D5
788
7EE
08A
6E8
0B7
764
739
7F4
02C
7A5
7CC
7BF
7C2
035
787
72A
0E2
7BA
76F
7D8
7CE
797
066
780
040
099
752
034
044
116
00A
729
7E4
014
74D
698
761
12C
035
6F5
036
79B
015
797
76B
6B6
066
79A
755
796
77E
78F
7F9
7E1
799
775
077
05C
06B
06E
122
08C
7DF
717
004
77E
03B
0E6
7FF
79A
025
730
01C
73B
7BD
071
7DC
00C
76F
054
7EE
075
7B5
7F2
785
797
765
013
72B
08F
032
7D8
736
7B2
038
7DB
7A2
6D9
136
0A7
010
01B
72A
7F2
76F
0E4
75C
0A8
094
020
018
776
76B
7FE
7BF
7D2
76E
761
7A1
044
795
7CD
057
042
7CA
088
061
78C
7FE
7F5
02F
768
7D8
7B6
7CB
77C
777
045
787
772
76B
7C0
789
7F2
7E6
017
78F
7A1
023
06D
075
7AC
001
7D9
7D5
7A1
7A2
76D
793
77C
7B4
7E4
03A
7F4
7BE
7E2
7AF
051
067
78F
033
02B
063
00D
7E2
038
05B
06E
08E
77D
7EB
029
7CF
040
00D
068
7F9
7E8
05F
7B8
05A
7E8
096
071
7FB
049
79F
017
03E
005
03F
7D3
07A
044
7BC
056
7AD
02B
01F
078
7CB
04B
028
00A
7F4
7F9
06E
7BA
7BE
780
07A
775
7A7
7EF
033
7E8
084
7A2
025
797
05E
085
015
02D
76B
081
78F
7BE
7F9
028
076
78B
034
7B9
066
76B
7F5
07A
7EF
074
03E
05D
7EE
035
04F
089
064
7D2
038
095
7B4
778
00C
04D
090
76A
7F0
776
7EC
79F
774
019
01C
7A8
7B8
03C
073
03B
795
074
7E6
760
06B
038
7FF
022
7FF
76A
06F
085
088
087
7F8
7A9
77A
787
798
02E
025
7D2
006
07C
782
014
774
7C6
7B7
76F
04E
763
7CF
052
041
7DB
7E0
7E4
034
012
7A9
774
7F6
079
008
077
7E1
07C
06C
7AB
7BC
7AD
787
082
082
052
00E
05E
05B
011
089
063
7E9
039
030
7E0
7FB
05B
049
087
005
064
7CC
070
067
00D
0A2
77A
7C7
7A2
039
024
01F
028
7C2
7F8
74A
7B3
7C1
07B
778
7BC
779
7CF
048
7F3
7DB
756
012
044
7CF
0AF
7AC
7E9
788
7B6
7EB
7A9
72C
7F8
7E4
761
7F1
7C6
0BE
7E0
7DA
031
7C3
7FA
009
7C3
087
01B
0B7
7BF
7EA
7B7
0E0
064
017
009
7F9
08A
772
014
03E
04C
020
002
002
012
7DD
7A2
7A9
7C3
7CD
04E
777
06B
739
75E
795
003
753
7E5
771
768
048
03A
7E9
008
708
7A8
045
7E4
7F2
75E
7A5
7A5
789
6A3
03F
7FD
789
021
05F
0FA
010
009
0C7
7AF
7A9
790
7AF
762
061
715
6BB
081
73B
7E7
097
7E3
6ED
7A5
754
7AA
7F7
78E
75C
7D2
079
7FE
7AE
070
7CD
01D
03D
790
7A8
01F
760
7C2
088
087
787
7A0
03B
7AF
07C
7E3
7C4
085
06A
06F
044
787
037
7E8
088
08D
7F2
7D6
04C
799
79A
779
05F
769
7E4
007
7AE
7DB
020
79E
7D3
763
055
76D
766
7BB
00A
058
78F
089
7F9
787
04F
054
056
7DC
7AA
01F
796
07E
02A
02C
07D
000
01A
07F
76D
056
072
04B
79B
09D
778
7C5
029
062
7B6
7AC
7F7
7B0
791
097
7C6
79B
769
05F
05E
071
016
090
796
07F
064
7D9
08A
7F5
062
798
032
7D4
032
77C
7EC
7DC
070
7C3
034
07B
064
7B3
7B6
795
049
02C
77C
7DC
7A4
003
784
7BA
054
781
7D8
79A
069
782
7E6
072
7A3
062
03F
029
039
7F3
795
797
781
7AB
768
052
7B2
797
037
7B0
752
775
781
773
6D4
77E
767
664
766
7A4
018
76D
055
785
7DC
76E
04E
04F
75B
7AE
786
7DA
6FB
7F8
72D
7FC
746
054
7A4
06A
7B6
746
7BF
01A
08A
7A1
7EA
019
7AE
7FE
7E9
7F7
6E7
70C
03B
02A
7A9
797
069
732
78B
74D
05A
72E
7F8
00C
758
7D6
070
7E2
7F6
7AC
067
04C
76A
009
032
7DB
7B0
7D2
79E
03D
7D4
013
076
002
0A5
792
71C
76A
717
01B
7A9
730
7F3
6BE
7D8
7CB
6DC
7BC
063
6F2
7DA
02E
7CA
7C9
7CB
7E1
7B5
79F
7CF
002
7A5
7A3
745
7B7
796
76D
70C
066
6AA
729
7C8
06E
019
747
024
078
7E2
786
7FC
784
072
776
7BC
76D
7C2
7E4
073
7F9
79B
022
080
7D8
00E
7DC
7EE
08C
799
061
79E
7C5
068
072
7FB
04A
7DB
7A9
043
077
062
7D1
088
061
046
00F
077
776
009
7F9
058
7C6
7D8
76F
78F
7E0
095
7DE
7C2
7D5
795
074
786
769
030
7FF
768
7FD
07A
7AF
7AE
02B
7EA
06F
05A
79E
006
792
7E6
773
771
070
00F
03C
78D
021
059
7F0
029
01F
07B
065
7F2
78E
779
7F4
7A9
026
06C
7B7
7D4
7A3
7F8
7D6
06A
025
7DD
011
085
776
02C
047
04B
066
01F
7F4
7E3
7B7
774
766
7F9
002
018
7ED
796
092
01B
796
798
06B
796
026
04C
7BE
7E5
7EC
012
04F
039
7F3
009
787
7B0
040
6E0
77A
7A9
70B
08F
711
7AD
6A8
7E3
012
762
766
040
7CC
6E3
705
7F3
7CB
081
791
084
7BD
6FE
02A
092
781
0A5
744
068
74D
7BF
0CB
734
7D7
799
051
076
051
09E
79F
72C
7C4
762
04A
08C
7E5
6BC
096
7C5
7A8
769
7DE
0D2
03B
7CF
7D7
7D7
679
7E2
0B4
676
03E
7DF
7A6
006
75A
7B9
075
7F9
7FA
0DE
061
7B8
0B2
7F4
7A7
79A
7E3
046
7A5
077
031
7FC
7E4
008
77A
7AF
6E7
7BA
096
7E6
793
7AC
7AC
7FD
790
762
036
6E2
7F5
74F
031
764
03B
023
72B
769
02F
7CF
726
038
00D
069
049
767
796
701
7A2
761
082
70D
001
090
7E6
783
756
0AC
754
699
7D8
7B4
771
025
740
016
7BE
742
6EA
7DF
000
0BE
032
7B2
771
745
7EE
6E1
7E6
6D8
019
7A5
7BA
032
7E2
6F3
7A0
7FA
7FF
0A6
06D
0C8
693
004
056
7B7
6CC
7FF
03D
00B
7CC
7D4
0CF
7B6
744
057
7CD
041
7FA
009
7FD
072
796
00A
76E
777
666
7D8
754
6A0
032
0ED
7F6
7CE
04E
7E3
75F
00A
6B7
07D
769
7B1
09A
763
72E
799
7D8
026
03C
024
07F
7DB
078
7DD
78C
784
7B8
000
7B1
7B0
7EB
7A1
05B
7EA
677
7A7
01D
7AB
79F
03F
7C9
03F
09D
735
0D2
082
700
006
065
7E3
7BC
7E2
008
7B7
739
012
7FF
7F5
7D7
703
68D
7A6
032
02F
035
092
034
781
7A7
77F
03D
7E5
7AE
02C
088
7AA
036
7E5
7DF
094
044
03F
08C
7B6
06F
070
79F
7F1
083
772
793
086
78D
095
030
01A
774
09C
7B7
7E3
034
034
79D
05E
015
7E6
08C
7BF
096
7E1
7C2
08F
772
7E4
052
034
7A4
7BF
069
7D1
7E1
021
04F
7BD
05F
054
7F4
048
04B
08D
7B6
799
000
077
7EF
03D
006
7F7
092
7C2
7B1
769
077
067
777
017
781
77B
7C1
76A
061
7CC
7E7
07F
06D
790
7C4
791
069
7EB
06E
79D
78B
03F
054
001
7AC
023
7B6
7A8
06F
03C
02D
04B
00F
06A
782
08F
778
090
7DF
793
016
06C
7F9
009
7CC
7AC
785
039
78E
04C
065
76D
083
7B6
778
058
7C7
068
7F1
051
7B3
7E5
78E
046
7CF
7E4
010
7C9
011
084
00B
7A1
070
796
77E
7C5
7E8
7A3
7BC
057
061
7B9
7C9
066
03C
792
7DB
77C
079
7D5
036
7E2
01B
050
781
77A
77B
03A
09E
7BF
79D
766
7E8
7C7
788
083
7DA
03D
7CC
00B
072
7F2
786
00D
7CB
006
07E
019
7CC
00C
7C9
7F4
024
02D
7B8
058
094
7F2
036
04D
07B
7D1
020
022
7FC
793
7EF
7E2
7EE
7B2
775
052
795
06E
068
020
797
074
7A4
003
7C5
77D
784
00B
017
7AE
764
064
012
779
092
7E5
05C
777
7E8
00B
7AB
00D
068
7D6
7F6
05E
093
76E
07D
746
05A
0B5
023
072
08E
7F8
7DA
02F
7C8
7BC
01A
04C
7BF
09A
0A7
7FD
7C2
03D
791
7E8
083
778
7CC
01C
072
008
032
008
000
7E5
77B
039
03D
04A
7CD
05A
783
088
080
7AB
7F2
034
020
09E
032
024
733
045
043
0A9
00A
010
793
0BD
7CF
084
058
780
061
05F
0BC
098
7C1
0C1
080
7DE
7E8
7B6
075
067
002
093
7E7
062
0CA
7FA
065
7A3
7C8
057
075
044
7CF
0C1
02D
777
7B9
7C4
061
0AA
794
024
7BE
036
7D1
005
795
015
7B2
06E
01F
010
7AA
005
7C0
029
7C7
078
013
041
0B8
7C5
01C
047
022
043
7E1
7FD
040
044
7A3
7F7
0AD
7AF
77F
00B
01B
7F6
7E3
76F
012
788
787
7DC
008
06E
79E
07B
6D5
004
05E
796
765
7E0
7E9
732
002
021
7E0
009
7A2
7AA
7C6
749
7F3
003
77A
7C0
75E
781
78B
7F3
049
099
050
0AF
7A2
007
005
009
0A9
7E8
758
790
083
034
7BB
094
7AC
7D4
7D6
7FD
777
7A9
789
6ED
051
050
05E
774
037
0AC
758
79F
72A
72F
7AE
7CF
72D
7EA
783
7C6
73D
00A
7A0
7F8
04B
7D9
7B3
777
7BA
751
795
083
7F1
7A3
0BE
74E
6F0
07F
7CA
04D
790
70E
7AD
77E
7F1
7DF
794
05A
788
058
104
040
785
766
7B6
04F
028
7AF
7A7
04F
01B
012
763
743
7D9
76E
7F9
02E
72C
7FA
01B
06F
03E
7B1
7E5
036
7AB
023
016
7C2
08C
04C
08E
7E7
05B
796
7FB
083
7B4
767
005
028
7AD
7B5
035
793
7A4
7A5
08F
05B
7E6
00A
772
79C
7BF
769
09B
005
037
772
767
08F
792
788
088
035
7BE
7F8
7EF
76C
05B
06C
019
058
7E4
7E1
7A1
79C
7DF
781
07F
7D0
790
02E
7BA
027
08A
099
05D
03B
7CE
76D
7D0
062
785
056
789
7CC
773
07E
76B
79C
7B9
057
057
78E
7AB
03E
7EA
042
7A6
7C7
7B2
094
7BA
090
770
7A5
034
01F
7F0
01A
767
094
099
7D9
76F
78F
7DF
09C
7B2
02B
7C0
769
004
078
7F9
7FF
029
05F
068
038
040
04C
00D
037
058
03A
769
076
04A
025
7CA
020
7BB
032
077
00F
095
01F
053
085
7B5
766
086
064
774
7CA
092
03B
7F9
7FC
029
05F
79A
018
004
7D3
789
01A
03B
7C7
072
7DA
79F
7EE
00B
7C7
7D3
033
7D7
7B6
084
050
07D
7EF
7D3
05C
777
000
79E
000
75F
06B
077
783
083
7FF
01D
7FD
7E9
081
00D
099
7D0
096
7B6
019
03B
018
065
003
024
022
771
022
093
081
080
002
002
076
7A9
7FB
01F
7F6
7F0
7F8
05E
7F7
079
09F
09F
7F0
79F
00D
7FC
79B
779
066
7C4
780
795
00B
048
79B
7AE
05F
019
094
010
763
7C3
012
01F
77D
7EE
787
7B0
7C3
085
05F
08F
7E7
7C1
7C2
060
7F4
069
00B
771
7F2
7F6
009
083
791
04A
001
78B
072
066
038
088
79A
76D
078
010
782
7B2
7A8
02C
00D
049
077
767
7A0
7E9
767
7F9
021
00D
028
020
016
094
04B
0B2
79D
017
7D3
079
7B0
005
043
7F5
7FB
798
03F
7F9
7FF
001
054
079
072
7E0
021
7B7
775
002
7ED
7EA
06D
7DB
023
02A
7C1
78B
030
76B
777
017
003
01B
057
78A
7CF
07D
7B1
086
7ED
047
785
051
05F
7A1
062
7F1
059
04D
009
7A9
08D
7D3
7D7
784
03D
094
061
789
071
087
07E
0A4
7B5
055
068
7A3
076
048
068
7D8
7F2
06A
064
77A
072
09B
7CE
006
01D
76D
79F
778
091
7FE
7F6
79A
7E8
037
0A0
7A9
7B6
06C
00F
00C
7B7
004
78F
7E9
079
769
76D
094
7B6
07F
7A0
046
77A
796
065
79C
79A
008
081
7DE
7EE
082
047
78F
072
7FF
020
780
082
08D
014
784
79D
77A
02C
7A3
039
027
002
7AF
786
7A6
067
7D2
7D5
04C
7FB
052
051
037
7A0
7D7
036
783
040
785
07B
000
7CB
7EE
777
074
028
02A
7B6
06A
7FE
065
048
077
78A
009
02C
027
02A
029
7D7
028
7FC
7C3
064
76A
01C
784
7BD
00A
76F
080
780
08D
08D
053
7F2
010
09A
0A0
030
7E0
059
075
76F
02E
063
056
058
7AA
774
08C
76D
01C
769
095
7EA
01C
033
7AC
094
7B8
7CC
7E6
096
7D8
022
06D
07D
790
773
7E6
022
7E8
7BA
786
775
013
083
078
09B
008
7D7
02E
7B9
01C
018
002
07F
7C9
078
7CD
7DC
043
000
7E5
094
7FE
058
7F3
78E
775
76F
06B
062
7A8
059
7C2
013
012
07C
008
01E
013
037
070
7E2
7D4
7C4
773
00F
793
074
006
051
026
019
002
7D7
7D8
08B
092
042
7E4
7A2
077
024
053
036
788
799
05F
7AD
015
7DC
7DB
085
7A9
787
7C6
781
00B
033
7AA
081
09C
066
7CE
044
7E9
065
08D
011
062
796
768
08E
7F5
79E
76E
7F4
03B
7D4
79B
7CE
073
7F9
7CF
7AB
028
7CB
016
7B9
01C
7D9
029
7BD
098
04C
039
06A
79F
712
7BC
052
6AB
7B5
073
02A
058
76C
7F6
0B8
727
02A
00C
01E
7E4
04C
7CF
09B
048
7DC
0C0
79A
7CE
0D7
778
050
7DE
7F9
09A
7F8
79B
768
7DA
023
7D8
705
01C
76A
7E6
7D2
0FF
763
000
08A
057
7D7
749
7C2
07A
795
0AF
07D
7E8
788
7C6
06E
07F
0A4
785
6FB
17A
71D
7E0
12A
705
7FC
6BD
6F2
77A
7FA
102
02B
7B4
02A
69D
00F
07C
705
7AA
0A3
036
0A5
051
7AA
01A
7C4
04F
78C
7C9
6ED
095
018
023
765
6FC
05B
13F
02D
0C6
7B1
773
062
7F5
7AB
0B5
139
0B1
786
021
0BA
737
027
7A6
056
74F
090
6BF
796
066
03C
70D
11D
06C
02F
797
049
0EE
7A8
020
7EA
096
77E
074
7DD
796
7FC
015
7AC
014
7D4
00B
045
06D
7B5
07B
7B3
77A
09B
77E
7E1
7F7
074
7BA
056
026
7F8
782
033
7A7
01F
05D
048
034
7DB
77B
088
080
771
09B
008
056
092
79C
00B
096
009
028
02A
79F
7FF
003
06D
75F
02F
042
79F
010
7E7
7C0
7D7
7D9
094
070
7C1
078
7B6
7C3
7A2
057
002
082
797
789
7F6
08E
085
08F
7E0
084
7EA
044
77F
01E
085
7EB
027
7B4
7C0
01A
786
050
066
03D
094
025
7EE
088
01E
79F
03A
7CE
05C
068
07F
78A
050
797
043
034
7B0
792
768
032
02B
79E
784
052
04E
782
799
00E
7B5
006
009
042
00B
788
7C1
798
7BA
0CC
08C
7C5
79A
7D3
6FD
78F
704
7F8
7AA
6BA
78D
08C
6A4
79D
044
71F
764
73D
105
78B
7F0
0EE
015
79D
749
781
77F
77D
73F
7C1
075
08C
6EE
79C
794
795
754
786
7C1
13F
78C
77A
083
7C0
7A6
74E
764
037
062
7C4
025
7DC
092
7BA
712
7E0
7FD
71B
7D8
76E
0CE
744
772
747
7A6
7AD
69A
0B7
78F
0C6
00D
085
011
7E9
00F
0AB
05D
738
05A
0A7
006
0C1
7A6
7D6
793
0B5
08E
793
799
7F9
776
028
7C3
0A7
000
0AC
7E1
761
7DE
00E
6AC
0CA
73D
0EB
051
7D9
765
082
7D8
037
056
7D7
7B1
6F1
75D
0C0
007
7C1
73D
7B0
7FF
0CD
78D
7FE
727
044
7C4
00D
06E
7A5
7F1
058
062
056
78D
770
7B6
71C
780
775
062
725
038
7FA
712
006
728
756
005
7EC
056
035
04F
751
021
732
7CB
098
095
7B4
7D5
7F3
01E
748
01F
012
76F
73E
7CA
04B
013
7A7
7CC
714
022
7AD
6E5
744
752
737
7DC
710
777
7CD
71C
016
7C7
727
066
7BB
014
7B7
7A2
7F5
74A
00F
6E6
06C
7B8
7E5
697
76C
670
73A
053
7EA
787
769
7C0
79B
795
7EC
01E
7BE
7DA
7F8
7D0
7EC
7FD
7C3
7CC
68E
762
7A9
7C7
7B1
7E0
7CF
7A7
7E5
7B0
778
012
009
7D1
7F8
049
733
784
7E3
7CA
7A4
7FD
086
7A1
74A
66F
766
6F4
75F
086
01A
7D1
006
033
7F8
7B8
77B
05A
08F
00E
07B
7E9
080
059
068
084
7A3
792
7B8
7BB
015
072
7D3
79D
024
791
7B9
094
037
09B
044
096
05C
7F1
783
7E3
794
06C
02D
7CD
02C
79E
032
001
7E4
7EE
04A
792
7D9
06A
787
789
056
000
036
7F9
7CB
018
04C
05F
047
793
7C6
03A
058
7BF
787
7FE
7BB
7D2
062
039
023
789
7F8
7F9
7BA
7DA
006
7C8
7BF
005
013
79B
763
043
7A6
787
096
08E
779
7E4
7F5
7FA
04F
7BA
06B
7E3
02D
045
7E7
7D6
019
04A
00B
7D7
797
046
77D
02A
7E3
071
035
7D5
7BB
7CC
79A
7B5
06E
7B2
035
7FC
781
7AF
7A0
029
042
035
088
081
7E3
7CB
0A1
7AB
05B
068
7EB
76C
054
026
75D
7D7
76D
038
7DC
015
7A8
785
066
022
03B
78C
775
7DA
036
7B4
058
035
08E
77B
085
7A5
0A0
02F
786
7A8
058
062
026
08A
7C0
06A
049
072
7C0
031
08D
77E
7BC
7D9
791
026
7DF
7E7
019
021
798
7B0
049
069
046
03A
064
085
010
07C
066
7A9
7F9
083
01E
7DA
077
7A8
085
764
7D6
028
7AD
7BF
083
044
03F
041
06A
7D6
7E8
7F5
042
762
085
071
7D2
01E
05B
7A3
089
7F3
766
79E
00D
7A0
77D
79B
7B9
017
7DE
000
083
7AE
786
027
04B
7B9
04D
795
7CC
7E5
00F
008
795
06A
00B
77E
7E6
76D
7FE
777
03E
022
788
771
00A
05B
7A4
768
079
7ED
7B3
08F
776
033
00E
7F2
7DF
079
008
083
7CD
7F5
052
7E1
772
7A0
00D
03C
037
092
077
080
01F
07F
7D5
76E
01D
087
7B4
7CA
07B
038
073
761
75F
033
7FC
7D3
7A3
7BB
02A
7AD
018
07E
7C2
06D
7EB
784
004
75F
779
7F7
032
774
061
065
788
096
7B1
7CA
778
7A3
002
779
79A
7A8
76C
7ED
766
07C
7A4
029
061
08E
7AF
7EC
7CC
08A
7A0
013
75D
024
785
76C
04F
00D
7A9
074
093
7EF
053
7EB
774
005
04D
023
02C
01F
084
050
7E8
791
047
796
7D7
072
073
058
78E
08B
149
7A7
066
079
062
76A
79F
716
61B
055
754
0C2
01F
7CF
08A
03F
7C4
06D
793
067
09F
79B
7EA
0D5
064
67D
796
776
0BD
72A
06C
714
01D
7BE
038
07A
001
004
7EA
7C2
7DC
03C
786
7C4
796
000
00F
795
021
07C
76C
7C5
73F
72A
0DB
752
18B
0AE
0E5
76B
749
745
7F4
083
7B8
7BE
04F
0BD
746
7D3
7AF
7E5
05E
0AB
789
07E
011
7DD
720
7E1
10E
76F
7FC
765
6E2
7D0
7F3
09F
796
712
718
025
7B1
74E
761
7FD
77B
7D4
0BB
040
7C8
0D4
02C
745
114
036
7DA
006
062
741
05C
061
7BB
775
74C
04A
044
08C
17C
02B
7E1
005
76B
759
026
04D
085
020
78C
087
7DC
057
7D9
6DA
7C7
0CD
78B
01D
79B
0E5
0A9
74C
799
70C
7F4
06E
7EC
7BB
7DC
090
7AA
7A5
749
001
05C
785
029
7E0
023
055
010
028
069
7EA
0A0
7B5
096
779
07C
7F3
055
081
07B
01A
097
012
733
7B5
6CD
066
093
0A1
6C0
7F6
084
7D5
76D
740
009
14A
0FB
01F
7C6
7A8
11E
743
7C9
06B
09C
727
6C8
6D0
01A
04D
110
7CC
040
00D
11D
01D
718
080
7FB
059
066
023
7C4
017
092
78C
7DF
0EE
7A6
065
7A7
019
00B
7E8
72B
7AA
09A
7BB
010
022
73F
7FC
79F
035
784
7B4
7A4
7F6
6D1
750
0BC
770
088
089
772
01B
068
6EC
062
01A
008
7B3
29D
798
7D0
7E2
73A
08E
797
06C
030
078
069
7A4
02A
7B0
02E
796
794
08A
7DB
082
05F
01D
033
78A
77A
798
787
021
093
790
08D
06F
061
00F
7FE
03C
065
768
7A3
780
001
7A9
018
01C
07E
78E
76D
7D7
7D7
77E
7B0
027
7DB
007
7CF
7A9
072
7E2
7CF
011
063
04A
7C0
7B4
044
04C
7D5
7D7
7F4
7B0
06F
7C0
7B3
04A
057
79C
7B5
7A9
78D
062
76B
763
06D
098
7E1
79A
06D
06D
796
01B
7F9
085
07D
065
007
03F
096
015
797
05C
760
01F
7A1
036
7B1
7D4
7E8
78C
792
79D
786
00E
7AB
7A3
76E
7EB
7A2
078
7FB
798
03E
784
779
080
07E
074
01B
036
05C
027
059
78A
7E3
005
7C8
087
04C
06E
7C8
036
7B2
7FF
02F
79A
065
7C7
065
072
005
7C2
026
7F6
7DB
07A
097
763
7A5
793
793
7B9
7A6
7C0
071
055
08E
02D
00C
79F
076
098
04B
00F
791
7E7
7BA
026
79B
79D
047
01C
79E
06F
7A2
064
7EE
779
037
77E
08E
06E
77B
06D
05A
7E8
7AB
7B8
007
010
090
032
08A
7A0
7D9
7F4
03E
041
7AD
020
79D
788
7A5
79C
075
7D7
7F5
7DB
7BB
070
009
058
7C6
031
7CE
7BC
02A
78F
077
068
037
06E
034
779
7F9
7AD
055
019
79A
7C4
774
7F9
76D
7BC
094
032
04F
04B
046
764
781
7F1
7F3
059
7B1
01D
7A8
050
010
057
04A
78A
797
7DF
021
018
043
7A9
7E5
7B6
04A
779
039
057
78B
04A
035
03A
03A
78D
7C0
05D
079
738
054
084
04E
085
01A
76B
7C4
771
05F
76B
04B
05D
036
7FE
0B3
7D8
04B
774
771
795
032
77D
092
04D
7BB
043
048
02E
077
792
001
7F8
018
79A
7F1
77A
7B3
7EF
7FE
06F
063
7B5
77F
795
064
7FC
7CE
004
047
76E
07C
083
04E
79E
03A
017
7CB
7C7
77F
7F7
7E4
7C6
036
025
7BF
7D7
7CE
7D4
787
029
795
7B3
008
779
7E4
7B6
76D
7A9
01D
085
75B
79A
008
774
012
79E
7CB
7C4
051
7A1
040
7C1
028
777
020
7A7
070
7F5
7D2
071
784
7FF
035
03E
024
011
08A
07D
099
769
012
09C
799
7B4
014
057
060
014
77F
05B
7B2
7A9
7BE
7C2
7C4
02E
068
77E
7FE
066
7D0
099
767
7FE
7B0
7CD
038
7CF
045
76D
7EE
786
79E
786
004
06A
7A8
7CF
7CC
7F5
037
76C
09A
08F
7B8
7A4
005
023
781
790
039
068
014
028
067
03E
7D5
7E3
025
7B3
098
7F1
772
7AC
004
7BF
030
77C
078
008
780
027
001
764
056
7BF
7A7
785
782
017
09C
779
074
79C
7AD
07C
009
787
7EA
078
7EF
077
023
771
78F
084
7FC
040
7E1
068
078
026
067
033
7C4
78F
085
056
7CF
01F
77B
7DF
7EE
049
020
76A
091
085
014
77A
08F
046
7F4
7F8
79E
03E
7DC
77B
7AF
7FF
09F
7B3
080
7AC
795
00A
77E
099
02E
7C9
7D3
7FB
032
054
04A
04F
082
784
7C4
058
7BA
78B
79D
7C8
7E0
085
79C
019
7FA
7D5
058
793
7AA
088
018
7EB
05A
031
089
781
031
7A3
77C
7BC
7F3
021
065
075
793
042
07D
7A0
039
7A8
03D
774
775
025
7FE
01E
783
7DE
096
7BC
7BC
773
068
7C5
782
094
7A4
789
7A2
08D
772
020
066
06F
077
767
78C
799
01B
042
060
76F
7CE
062
083
7D9
046
7B4
7D6
78A
7F3
053
091
021
08A
068
04A
031
7BE
05E
7CF
040
055
056
031
089
020
012
079
7BA
7CB
04A
027
044
019
77A
079
7CC
7A6
035
06A
056
082
795
7FD
7FC
054
7F9
79F
014
043
79A
7E3
776
782
7EC
7EC
7E9
07A
08E
77C
7BD
765
011
092
79E
7AA
7DF
7DB
02B
791
7E4
77C
047
786
7B9
7B2
033
01B
7CF
793
082
78D
7CB
018
7F6
77D
7AE
779
08A
77B
7CD
08D
7CB
066
7AC
081
76D
774
000
7A3
7F0
076
048
00D
03C
092
08A
06B
77C
785
053
774
07C
79C
095
068
098
050
7D5
792
7ED
02F
060
77F
022
07D
7AC
78C
7D9
05F
78B
7F7
77B
777
7CC
7AC
781
7FB
062
7EE
062
090
7BA
002
79A
026
025
01C
7DD
7FA
093
002
77B
768
772
076
76E
019
04E
096
036
770
091
7CA
043
06A
08E
07F
7FD
020
7CE
7CD
04E
7CC
7CD
016
044
7A8
001
7C7
77C
05C
029
06E
08E
04D
7C0
099
062
07F
02F
090
068
7CA
7E3
79D
069
7B6
7A6
031
78E
031
76C
77F
79F
029
029
779
7AE
7E7
7A7
792
790
7D0
7CF
798
7D7
043
044
06C
006
00B
781
08E
04D
780
084
77E
7B9
02F
087
033
7E0
7F2
7E9
07B
7DC
7B8
76F
777
065
7C3
77F
7A1
789
08F
07A
783
02B
7C5
7D5
000
06A
781
7DF
78C
077
006
785
7F0
022
002
059
062
039
015
7E3
7DB
044
076
029
76B
096
010
007
05D
7F4
037
7AB
7F7
7FF
01B
089
7CF
01B
78F
7DE
7F2
787
021
005
7F8
7F3
048
02E
7E0
7A3
7CE
788
07C
08F
778
03B
79F
07A
032
7B1
7E9
7FE
7EF
78E
7AE
770
7C3
7A2
7A1
782
790
77B
067
79A
7AA
7E2
056
08A
02F
035
7AF
03F
00E
788
7B4
06B
7FD
7B2
7A9
79C
089
7EE
7C0
02B
7AD
78C
06D
798
06F
038
028
7A6
01D
034
016
774
024
07B
79D
7E0
09B
7E0
081
037
77C
09B
087
7B0
7F5
776
089
7C8
77E
7A7
7F5
04C
7A2
76B
771
013
008
7A1
02F
775
77A
013
055
052
099
766
7DB
015
007
012
7A5
77B
08A
7E7
004
775
7ED
7AB
78C
7E1
7EB
051
03C
7C1
058
7A1
047
06A
7AF
79C
056
072
05A
76D
017
00B
7D3
064
7C6
7D3
7AB
79A
705
74D
03C
78F
726
79C
6E8
7D1
04F
76E
7F6
7F1
7D1
79A
770
74D
6F4
7E0
713
065
08B
73C
7B8
011
7E6
7DE
7A5
05C
7EB
008
720
788
70A
74E
738
7DD
051
762
7F7
00B
768
725
7BE
7D9
017
018
7FC
01E
00F
720
6EB
087
6EC
782
78F
7CE
7B5
075
752
069
7C0
7B6
03C
7CE
72F
7CA
717
70F
76B
79C
7D8
6D6
023
723
6E1
782
711
04F
7A7
65E
7C2
76D
045
04A
720
0A9
01F
7BC
725
013
741
675
7B2
731
791
766
074
03B
058
014
7D1
7D0
067
011
070
7F2
79A
025
71A
7B3
07C
760
6DD
764
76C
748
7EA
07C
022
7F0
707
02E
7B3
7D7
6FC
015
091
7FC
02D
06F
781
7A3
013
7FC
054
04F
0C1
063
07E
006
08B
7BC
08E
7F2
790
03C
078
082
03B
79E
038
7CA
047
047
087
002
02A
785
7C1
047
783
071
78A
02B
7C2
069
7C3
07A
07A
0BA
7EC
7FC
060
7F7
022
78E
046
7B4
055
098
7DA
7BB
02F
7E4
00F
03B
03B
05C
00C
78A
798
0B4
7C2
7D5
7A4
001
04E
02B
7A1
0AD
72D
7FF
036
061
7AC
08A
07B
005
785
017
035
0A5
037
02E
057
09F
79D
7E8
006
0BB
770
03C
065
00F
096
7EE
7DF
78D
034
794
7C0
757
79F
0B2
047
034
7C3
046
7B3
7C7
03A
143
04B
0AB
0AE
7FD
7EB
77C
096
7E9
17D
005
7E2
093
041
01F
77A
095
7B6
009
770
06E
04E
7DD
7B0
7DC
03A
784
093
778
040
064
0D5
066
02B
7D8
054
79A
7B6
020
7DA
7CC
7F2
022
00C
7FD
073
7BD
03E
07D
02D
02E
7A3
7CB
014
092
7A5
074
04E
077
071
775
00E
7C7
6FA
781
08B
7D6
05A
074
0EC
026
021
74E
7B5
04A
05D
014
01B
744
7EF
07C
011
07D
01B
089
7FA
7BF
7DE
06D
7F8
7A3
79A
7E7
7BE
7D2
7C7
031
026
05D
7E4
011
00E
7F6
032
07E
025
054
78A
003
7D3
0A5
013
0DB
776
03C
7D5
7E3
046
7D1
020
7C2
097
056
094
01C
046
7F3
058
153
7D8
7CB
7D0
784
0CA
765
7D3
020
089
78C
03F
76C
7C4
050
01A
7BA
089
027
0A3
7B0
78C
048
75E
78D
021
7EB
065
053
01E
7D0
049
7D3
017
018
088
070
7ED
083
024
7FD
777
793
7D1
78E
009
07C
02F
00F
01C
095
7AF
051
027
7A8
04C
7C6
787
7A9
7EA
029
077
079
798
083
06A
068
764
78F
76C
78F
768
773
7ED
793
070
7A3
777
7DF
01B
7C9
013
7B5
02F
08D
07D
077
7FA
028
7AA
084
044
02E
035
785
07C
798
03A
045
06B
04F
070
7AB
7B4
079
7D0
055
7BF
775
08D
7EC
7DC
7F4
793
7E6
07F
7B3
77E
790
077
05C
7B7
070
052
07E
7DB
7C3
076
03C
764
7B4
7AE
7BC
779
09A
760
7EF
07E
06B
760
7BD
780
092
7BC
777
7CB
7DB
77C
024
7FA
797
771
02D
7C0
030
792
7CC
080
02A
04F
788
05B
038
76C
08D
772
791
790
7E5
786
7C5
7B0
7D5
7D5
037
7D6
059
7CC
020
7CB
023
06C
7CF
06C
7FA
7D0
03F
08C
76E
07B
787
038
776
7DF
016
7F7
7C8
01D
070
7FD
08F
021
060
057
08E
7ED
78B
092
07F
09B
7C5
7B5
7B8
793
791
79B
799
055
076
08C
79E
7D3
057
071
08F
7E6
000
7AC
7FF
79B
761
7E7
020
763
77E
7F5
008
763
050
7E6
7DC
07F
7F6
027
058
79C
7B7
002
77B
7DC
002
7AC
79B
099
03A
7E9
00C
055
796
7CB
760
7E7
019
051
004
002
7CB
004
7D7
7E8
030
78C
7A8
7DE
768
077
016
062
05C
00D
002
7F2
003
7C9
787
7EA
095
7F6
061
784
797
7E7
7B1
07C
075
7D8
7B6
048
7DC
066
7F3
057
02C
059
00B
036
7D5
7B4
00B
058
039
7BD
7E3
7DD
7FB
017
09D
00E
787
002
099
00F
033
7B2
77D
07A
096
065
7CC
048
7BA
076
031
76E
79D
093
7C0
042
014
05C
7F5
7C7
05C
7D8
007
792
05B
06B
023
785
7C6
008
07B
07D
7CC
7D5
7BC
7DC
7E1
098
7A0
086
7A9
047
79D
074
08B
7E3
78E
779
062
008
050
049
7A5
7F4
064
012
768
075
024
064
798
011
058
799
7D1
799
7B0
7F2
7CA
7C8
7EF
771
074
015
035
7C5
03F
00F
798
7AF
7B1
06F
017
787
002
7CE
088
75D
058
03E
7D5
7D8
02F
78B
794
007
786
7A8
04C
014
027
069
075
034
047
7C9
7B6
7DB
7EC
01E
7AF
072
086
7E0
093
028
007
76B
7AF
023
07A
76F
7FB
779
7AE
778
02A
7E8
080
044
7B5
79E
7B0
7FF
05C
046
074
003
7C6
007
780
096
7B4
04E
013
763
784
7F7
00E
090
7CF
079
040
7A1
7D8
03B
082
76B
7F2
09D
004
78E
777
7FB
053
7E9
01E
034
094
77A
770
7DF
774
060
00C
78A
04C
7BC
07A
03F
050
7AC
7AE
763
006
043
06D
7C5
03F
0A2
06C
045
796
7A1
786
7AA
038
7A3
7EA
78D
7E5
047
026
035
79D
779
051
0E5
0A2
017
7E8
03A
052
714
025
7A9
77F
7BF
7D7
009
731
7C4
073
74F
7B7
7BC
7C8
045
0B7
085
72F
01C
793
7A7
6CC
0B9
01C
76B
7BB
77E
0C5
7BC
066
041
0D7
742
7DE
071
794
786
0B7
7C4
796
0AD
065
025
025
778
0C9
7CD
008
09E
007
7F7
016
06E
7A8
79F
7BD
7D7
7B1
743
720
764
009
0B2
05D
7DC
028
087
02E
0E8
7F9
763
109
092
7FF
773
7DE
7A6
002
0CF
022
746
7E8
07B
037
7BE
7DE
0CA
7B8
78A
04F
004
75D
7C7
7B4
02C
78E
056
79E
7EA
7D8
08F
7BD
04E
7BA
090
07B
0AA
78C
799
09A
07E
003
7F5
0BA
09D
759
041
7EE
006
7D9
77E
7F4
7F2
7F0
044
01D
039
088
079
08B
765
06F
7B1
7AC
010
797
09D
02C
7FD
02F
7AE
08B
052
772
7F2
794
06D
7DC
04F
783
78A
788
7DC
7AF
7FB
02F
020
7CC
78D
771
78A
7AF
778
028
06F
789
070
77A
095
057
083
08B
7B4
06A
00F
06B
07D
070
7B0
774
7C3
788
055
08A
03D
7D4
787
008
003
047
78E
08D
787
7E9
035
7B4
7CC
7A7
094
75D
006
08F
04C
010
7E3
035
037
051
062
08A
78E
787
06B
020
7DF
094
00E
7E1
7F6
782
090
7F0
7CE
050
063
05B
7B5
7C6
77B
091
78C
08A
7FE
7B8
020
7EA
01A
79D
047
03A
08A
07F
091
095
081
7F1
041
763
01A
09A
798
047
02F
028
0CF
767
010
103
7A8
7B2
068
052
7F1
7B3
082
0AF
7AD
73B
00F
74D
719
03E
794
043
06F
7FB
7BD
0ED
7FE
760
7DE
013
7F9
056
747
765
6E0
75D
7D5
7AC
07C
0AE
795
75C
7FB
6E8
186
7A9
7C6
066
0EF
756
059
02A
0B8
040
013
6E9
657
7E7
0C4
0D7
7E0
7DE
7CA
04E
017
77D
0A8
057
796
7D8
09C
7EC
11D
123
026
061
7A2
085
0BA
71D
748
7C5
7A6
079
762
7F1
025
061
795
6C1
6E5
0E5
6C1
6FA
098
74E
06B
7C9
7BC
733
0F8
766
78B
789
790
7AA
730
10F
7A6
7F3
7C3
027
7F2
6F4
79E
777
12E
7E6
020
08C
7A0
7B1
7A2
082
7E5
09B
024
7D1
7A7
788
07B
7FE
77C
7B3
7DA
774
788
7CF
00C
7F2
771
7DE
08F
7F6
7DE
027
034
7AC
080
079
06A
09A
7AD
7DF
00D
08D
7DC
7F6
04E
79D
7E5
050
035
041
098
773
090
064
7D6
013
014
7FD
77B
7B0
02C
002
062
7E8
782
081
00A
001
00B
063
018
077
0A1
07F
78E
057
059
045
7C1
78D
02D
77F
005
004
080
093
036
028
79E
01D
761
7F4
076
7EC
072
7D2
7C3
7AC
018
78D
081
7C8
062
787
069
047
7DF
050
052
7ED
79F
051
77E
771
068
04B
792
7D3
7D6
081
070
049
014
7A9
77F
018
025
7D3
7C7
01A
7E5
00E
77D
03B
7B7
7E3
774
7CE
7A8
0A5
7B9
784
7E2
7AE
050
05F
074
07B
01C
017
7BB
015
7FD
065
029
7D3
02C
7BC
079
79C
7A6
7E3
7E8
068
077
018
026
03B
770
068
771
020
7E7
02F
01B
01D
020
071
04D
023
7A0
7D8
00F
053
05F
7B0
04E
7E3
770
033
05F
7D5
7F2
7CB
010
773
078
062
78B
01C
7C4
016
056
7F0
033
025
032
044
034
7EF
7EA
7D6
06D
7A2
042
7BB
05A
7B5
075
7BF
794
777
018
010
018
7A6
017
048
00D
037
020
01E
78F
78E
057
785
7F9
7C8
052
7B2
7B2
073
057
76F
030
7F5
7FD
7AA
77B
05C
7A1
04A
780
789
7D8
030
035
7F8
034
006
088
7EB
7C9
02B
76C
77B
79A
09A
08E
014
09E
027
7E0
77F
062
005
7B4
781
089
7EA
02A
799
7E7
043
764
7CC
09A
7A0
07F
776
7DF
076
78F
015
7DB
7CD
7B2
79D
015
78A
04A
765
055
04F
7AB
090
7F8
794
082
04A
778
798
75F
7C6
7B5
7A5
7F0
7EA
07D
76D
01C
090
062
792
78F
098
02F
781
049
084
7B7
7CA
7FA
074
043
7D8
7EE
7F0
09B
7E3
781
785
03B
7EA
003
7C7
026
7AA
7F4
07A
005
7AF
086
093
789
7E3
08E
042
07A
06D
006
7D8
07F
040
070
076
002
774
7D7
006
07E
782
792
7A5
7B8
7B9
7F7
783
7B9
79A
01D
79A
00E
7CF
061
79A
018
7A8
04A
7B0
005
76F
79A
7B5
7E6
7CF
00B
75F
085
02E
7F2
7F0
7EF
76F
065
78D
03C
7E0
020
01E
7EC
7B2
028
03B
07F
052
780
765
7BB
7D2
013
7A1
79B
7C7
031
768
071
05F
077
02F
03E
7E4
039
022
7DF
05B
7CF
079
7B0
75D
02E
7F8
03D
7B6
037
036
796
7D0
784
7F5
7A9
06D
030
07E
7CD
008
7FE
067
021
022
072
7D9
046
05F
76C
7C3
003
76B
094
788
027
7AD
080
025
7A5
7D0
005
7E5
7B8
7A4
7AE
7BF
03A
799
7AD
076
06E
792
77A
080
7FD
78C
055
021
016
069
7DC
055
003
097
07D
7BA
7E2
08C
026
7E9
7C5
042
7D8
073
094
7A5
06B
056
77D
793
7B8
015
7A1
7A3
03A
7B2
7B7
08F
7F6
006
7AF
7ED
08D
7EF
7A8
036
7E0
7FC
02D
7EA
079
09A
772
7FE
7CE
796
06E
7AE
08C
78B
030
08E
072
7A7
76C
088
79E
05C
071
7BA
020
046
055
76D
090
7B7
054
005
039
018
015
006
78E
00E
02B
7DE
775
78D
029
7B6
76C
087
7F3
07D
7E1
79E
7EC
025
073
7C0
793
06C
76A
00B
015
028
793
05F
054
775
76C
062
029
073
7B8
7DE
7DD
7A2
76E
065
090
047
013
079
7C9
7B1
7FD
7A8
789
067
023
02C
077
7C8
057
7A6
030
765
058
776
088
767
7B8
032
033
7F6
002
03F
7A1
76C
787
016
7C8
068
059
7A2
02F
06B
04B
005
033
78D
7AD
02B
7AE
78F
769
7BB
012
766
029
032
07C
7F3
005
7CB
7D5
7C0
7D7
079
038
7F4
002
7E6
7F4
00F
7A3
76F
7B7
7F4
779
061
775
003
764
031
794
760
07F
01B
091
7ED
779
03E
036
023
09B
07F
7DA
07A
7ED
78D
077
7D9
076
060
796
7B5
7CD
001
01D
035
00F
029
7DA
05C
789
010
09A
7AC
7FC
776
7E0
7E0
09A
7DD
7B8
007
037
079
014
002
787
76E
776
7FE
7D2
7F5
76A
7EF
06B
76A
06B
043
09F
7A3
7DA
006
7FE
770
77C
7BD
7FC
76D
03A
02B
7B8
7DC
7F2
794
7C1
03F
7F1
00F
03A
7C5
76D
00E
001
01C
06C
7DE
02C
090
03E
7CB
065
776
79B
06E
7F0
061
7EE
07D
0A0
04A
7D2
7BA
0DA
0BD
02E
782
7BA
013
09D
784
791
05D
02D
760
7E5
7D3
043
7A4
779
788
7F5
7C4
798
067
056
03D
011
7A6
783
7A0
00D
7F7
032
7F1
082
7D3
043
05D
780
01B
752
0AD
723
04B
065
7C0
779
076
02A
03A
098
769
04A
030
0A4
0C1
098
052
7BA
7C8
007
7D5
722
063
7BF
748
051
7BE
7E9
035
059
7D3
75F
773
047
0C6
0B5
76B
094
063
0A3
79E
015
7F0
03C
02E
7E3
0AC
7F2
7BA
7ED
08E
00D
7FD
7E7
7BC
7E8
01B
7B5
01F
021
7EB
033
08C
0A2
7B7
034
7E1
007
0A3
768
083
7EA
04A
01E
7AC
01A
090
054
7A6
0FD
7BF
04D
08C
054
075
06C
7FC
06D
090
783
795
031
00F
77F
7AE
01A
785
776
024
7B4
7DB
7DA
7FF
7BC
07E
76F
7B3
01A
77A
7EB
0A1
7E4
03F
7AC
024
79C
04A
7F4
76B
029
056
05F
78C
08F
7B8
7E3
77B
017
06F
074
77E
02A
02B
7CA
08B
062
764
7CD
038
01A
048
025
002
775
7FB
083
77D
050
019
062
06B
7E6
783
777
7AE
7C2
760
7E9
782
7F7
7BB
7EA
7C3
045
773
057
7A9
071
769
00D
01E
005
06C
787
066
008
015
765
792
7ED
7C8
05A
082
049
00F
7D2
76C
0A0
7AB
7EF
798
796
065
0A0
03B
083
7EC
7A2
7F1
00F
066
046
7C4
7BB
7D6
7ED
78F
7BD
005
77B
01E
7BB
77B
7E0
7F3
024
00F
7A9
05E
060
7F9
7CE
7A0
060
00F
041
073
08E
05F
7F4
777
7E9
7FD
7F5
027
7AA
765
7A8
079
7C8
7C4
76C
07B
76D
7E5
78F
7A4
778
7D0
7F8
794
084
7B9
082
005
0A2
023
7D5
037
049
065
026
7AD
07D
036
775
7AA
06C
7A3
763
796
004
79D
797
78B
027
7E3
010
7A1
085
7D3
016
06A
013
7E8
76D
7D3
7FB
799
789
091
007
06C
7A4
042
02D
056
77E
011
76C
098
06E
00C
77D
004
7D2
7C1
7A2
070
045
7F1
770
7F1
00D
7AD
021
76E
089
028
015
07B
04B
020
033
7D2
04C
041
7B2
795
7E3
76A
7E5
047
782
02E
78F
083
7B8
045
7EE
07B
7EB
7C0
07E
059
7E6
7C0
08D
7C3
067
7D5
7B5
797
08C
069
7C5
028
07C
00D
7B6
7AD
075
7A7
7EB
779
77A
783
77D
771
07A
7E6
76C
766
083
7D9
062
010
7A0
01D
093
79E
047
7B2
064
798
00B
7F5
03C
027
03F
0A1
79D
003
7F9
035
045
7E5
082
07A
00B
057
06D
76C
078
094
039
77C
7C2
046
088
7B0
7EA
7D0
773
096
045
014
784
03D
773
7BD
065
08B
7A9
79A
796
7A7
7F5
058
00B
7B2
7D1
790
79A
7B1
02C
79B
7AF
7A4
011
777
772
7EB
085
080
010
793
01B
054
06A
7A1
778
01F
7A4
082
781
7EB
7B4
095
028
090
7FC
092
064
7A3
7C0
7CC
767
7D5
7EE
05B
7FC
75F
02B
7AE
768
781
083
7C1
7B2
795
013
790
7C7
79E
7B8
036
035
028
073
7C8
073
77A
7FB
76C
074
7C9
7C3
070
783
787
79A
04F
068
7EC
085
013
797
08B
01B
7D6
027
7AD
7A6
7DE
07E
00F
7E4
016
037
790
02D
7F6
004
7EF
040
7FA
046
0A2
7C9
052
7F3
069
003
019
01D
79E
7B5
025
06A
7ED
0A5
065
010
796
02E
0B9
008
014
05F
7A5
7FE
02D
770
009
06F
7C3
020
075
770
7F4
049
038
010
799
7BE
06C
023
05E
77C
039
7B6
7AE
796
7C2
7F8
772
081
02B
7FD
79F
796
08B
7AC
097
7EB
076
788
787
0F0
04F
062
08B
098
083
7B6
7D5
045
005
7C8
7A0
0A2
784
023
04D
085
7CB
069
010
7BB
043
795
7CA
039
76C
037
7D0
775
082
776
7A2
028
7AF
07E
026
797
03E
094
005
042
03A
7F8
7AD
7C7
05E
054
7E9
02E
7B6
7C0
7F2
7F7
7AB
092
043
799
07C
012
799
055
79C
031
76F
076
00E
07A
7C5
768
763
08A
07F
088
7AB
022
075
050
7EA
7AF
086
049
038
7C9
042
03E
055
793
06F
007
7D0
7AD
078
79F
7CA
7D0
011
777
048
042
7C6
01E
7BA
776
7E4
000
065
067
7D2
08F
7CC
074
7A6
06F
772
769
051
7F3
01F
07C
78F
014
06D
7A8
7A9
087
7FF
02F
07B
7C9
7E6
092
7BC
015
7DF
069
785
0A8
7B1
7C1
7E7
004
030
786
793
77E
7D6
77E
788
7A8
7DD
7A6
7B2
009
7F7
099
754
78E
00B
7EB
01A
011
01A
000
7C0
7B1
765
7F6
788
00F
7F1
003
03B
062
79E
7D8
037
009
7C7
014
7CA
047
02E
74C
792
0AE
090
015
77A
001
785
7DE
004
018
7F7
062
04B
001
7D7
01E
798
7D7
022
7AC
7F4
797
065
079
04C
7D8
038
001
7AA
7EA
7BB
01B
7C2
77E
788
7F2
05A
054
01E
012
036
7D7
777
73D
79E
069
05E
022
7A4
761
04F
00E
044
778
7FB
005
7D3
756
070
767
062
00C
06D
7D2
752
735
7A5
04E
09B
7AD
063
0F4
7D0
7CC
76F
7BF
09E
06E
03D
02B
75D
7CA
7C2
772
7EB
07E
78F
05E
081
068
030
010
75F
7DA
794
7AA
031
7A4
05F
77A
05C
7B0
797
049
093
7AC
784
093
791
77E
08E
76B
086
05C
04C
040
783
07A
76A
7ED
78C
066
03B
086
092
7BA
7AC
089
075
015
02B
05A
014
04F
7EC
078
044
049
04F
00A
053
7B5
790
00C
067
08F
7D1
7AA
76C
012
7A1
00F
046
065
02C
7B8
7F8
03C
7C3
046
781
7BB
783
7C1
09B
7CD
7DF
7B8
777
7EA
7DE
05A
79F
789
77E
031
006
782
089
7CC
049
04B
06C
01A
795
01A
087
7E0
7EE
796
7AB
079
06F
7DB
031
053
7B2
7C6
02E
783
7CC
038
07E
785
7F7
07C
008
066
087
7A5
0DE
742
746
7D7
759
796
777
781
077
075
044
7E0
03B
02F
79F
05D
071
02A
7A5
084
053
7CB
030
74F
07A
02E
042
0DE
775
05E
7BA
7D3
7C2
01C
056
070
76C
7EF
798
7BF
7E0
019
774
03B
06F
06B
033
7F6
03D
098
7DF
737
7D1
05D
7A5
76B
789
00E
009
060
0A6
05E
778
755
7A9
7DA
7E9
79A
77F
7EC
04C
0A4
058
7C9
002
7ED
7EA
7C1
052
77F
792
7E5
77D
7E9
089
7F7
7A1
7B5
0CB
087
00E
054
7F4
793
080
7A9
03D
097
7D6
792
772
030
080
041
772
023
797
7AD
7B2
042
142
7A4
793
02E
7F3
065
08D
79F
76C
0DF
7FA
03C
7F0
0EA
01E
784
097
7A2
7E9
00E
7C9
04D
07C
7E7
79C
075
794
002
7BB
000
789
787
7DD
012
041
026
031
0A0
08F
7DD
76E
039
040
77D
79E
027
041
795
7D9
7C1
7AD
7B1
06E
02E
7C5
7E7
7B0
7EA
087
7B4
00C
032
02F
008
069
006
001
06E
7A0
7DC
79B
7AF
009
039
7AE
013
02F
067
784
005
077
037
047
785
7B3
7E0
77C
013
012
7E3
772
78E
7AC
7AB
7A8
03D
058
7E3
03F
03E
023
78A
788
02B
05E
051
7B2
7DA
78D
786
00F
02A
087
7D6
00B
7E6
7E0
022
062
013
00B
77A
07B
010
083
784
78F
088
00C
7B4
7C9
7C0
06D
7AE
089
7EF
7F3
06B
7F7
7EE
786
06E
7D0
7F3
7B3
053
037
7D2
786
7F5
765
095
7BD
05E
764
05D
7D6
092
7F4
00C
02C
093
7F9
014
7CD
08E
077
034
76F
094
7C7
078
06A
071
7B6
7B3
05E
069
05F
052
7D5
774
008
001
072
7A8
041
04F
7D4
037
763
025
7A9
7E0
777
02D
7D1
7C2
7B9
009
03F
7F3
7C2
7F9
05D
07A
776
7EB
7BD
781
796
04F
76A
00B
034
000
03E
77B
786
762
052
7E7
090
051
054
07C
75F
7BE
071
01F
070
796
79A
7FE
01F
02C
06A
784
089
03F
082
7CC
7C8
060
08F
05F
7CA
779
00C
027
7F6
090
772
05C
000
7F9
7AB
05E
043
086
7C6
791
01E
083
7D7
031
7A2
7A1
7B1
063
053
771
76C
011
07C
029
082
786
79A
03C
7F1
082
789
04D
05B
763
792
78A
074
76C
08B
010
096
025
02A
060
7E4
77F
7D7
08E
07E
009
07C
02C
7FF
786
7E4
004
7BE
78B
08F
030
061
79A
074
032
7E9
082
070
77F
019
76F
78E
012
7BA
7D8
0A2
06D
094
07C
7C6
05E
7AA
7CB
78E
76A
05B
047
792
782
7D7
01E
788
008
024
7EB
062
03A
017
7D6
7F9
7B6
795
7A2
09A
7E2
048
01B
075
770
7CA
76D
7DE
08B
7C7
7D6
08A
064
771
7EF
085
7F1
7BF
07D
7CD
7EA
7BC
7D2
06E
023
087
772
03D
789
7A1
76F
772
7EA
798
07D
7C2
76A
7EC
79E
769
7A9
037
7F7
7F0
7CA
0D6
75A
7EF
088
09C
7CD
044
78B
0B1
08B
0A1
77F
00A
779
73D
75A
70C
795
761
7FE
7A2
023
7A9
744
6A9
7D3
7CC
7E5
76E
78B
042
026
760
03C
030
7F6
004
772
716
76A
762
768
019
00C
7EC
79C
054
7AB
040
004
004
7EC
746
0D8
05E
05B
73C
020
7E6
018
7E5
776
015
005
76E
757
6A6
014
77E
7B7
01A
7C3
013
799
770
0A6
7B2
74C
0CF
0A3
03A
006
75E
716
01E
07D
00F
00A
75D
6E8
7C3
73B
015
05A
78D
7A7
09C
749
7A0
029
7B3
7BC
039
76B
74D
7D5
023
7B5
7BB
794
771
7D2
76B
727
7C0
0A4
024
10F
7DE
784
05E
739
7E8
096
7FF
075
784
052
034
7FC
066
07A
7C5
06D
7F2
7F7
007
030
77D
774
06A
071
069
05E
7B4
003
072
049
079
091
793
054
7F8
02C
07A
779
7BE
050
7D7
04B
08C
78A
76F
025
060
76E
004
018
799
771
056
76C
092
779
022
7B1
7B0
04C
7D2
7E0
097
022
009
75F
7CD
05C
04F
069
052
041
7E3
780
7D7
7BC
08E
783
077
003
77A
7F5
7C6
04F
7BB
08D
007
783
00A
032
79B
04B
7F7
069
063
7A9
062
777
03F
77D
7AA
090
05B
02E
77C
047
027
07E
796
070
7FE
77B
76E
072
7F8
781
047
016
02E
7C6
01C
040
01C
02E
04E
795
766
04C
00D
771
04F
09B
061
76B
790
059
768
00B
7AA
7B5
770
7F9
064
084
008
7D3
089
09C
006
7ED
7B7
06F
7BD
7A6
056
790
791
7D0
030
015
778
7C5
769
7CD
040
775
7D3
088
004
060
7F8
7FE
01E
05A
7A8
04F
073
7BB
040
02E
085
7D8
7FC
006
050
769
782
06F
051
080
067
78C
7AB
7AC
7DE
053
01A
7D7
04E
7EC
7D7
7D4
037
06C
770
021
011
7D9
006
091
772
006
7C2
7C0
027
768
041
787
02D
7BC
03A
7FE
7B7
07C
7A1
081
057
089
053
001
77A
7CB
780
7AA
7F0
03D
781
7D0
08C
049
064
007
036
074
057
092
7C6
09E
794
07A
091
7F8
06C
770
084
00D
030
036
7D8
7B3
03D
78C
768
079
77D
048
064
7BB
08A
7F2
031
03C
76B
03E
7AF
7C0
07F
030
7C4
7FF
03A
06E
7B3
06F
049
7F3
036
7DD
7C3
761
75F
048
7E2
7E0
7F6
76F
05B
097
794
7E8
05B
76D
03C
7C3
0A4
7BF
02C
043
784
040
7B8
047
7C1
7BA
028
7A1
043
081
78E
036
7B0
7F2
00B
759
04D
7AB
7F1
081
02F
03F
078
076
7E1
037
001
7DD
7ED
7D3
75F
02B
7B5
7AD
7E7
004
7C3
7DD
786
78D
7EF
7D5
096
7F2
7C3
01E
04C
02C
7E2
7E9
09C
04C
782
073
009
7F6
775
022
7B0
02A
741
028
07D
792
7DD
04B
019
790
7D9
011
02A
006
7F3
7C8
08B
7CB
7BC
01D
7F0
76F
045
7F7
085
76B
03A
7DE
049
021
7D9
088
005
7A6
008
03A
01E
09E
7F3
77C
7F9
01B
7AB
020
76C
7CD
7FE
072
768
041
01A
035
7A8
079
08D
7C7
799
7DC
08F
093
793
7EE
011
00D
7EA
7E9
7D8
070
7F5
7D7
026
7A1
765
761
785
7DF
7D5
046
069
043
7F5
7D5
76D
787
075
7FB
0A8
070
066
055
05F
099
7B7
015
049
766
077
087
065
046
787
0C2
790
064
7C2
065
7C3
056
7D6
013
7D3
022
763
7CC
077
7D7
04A
004
793
76B
08A
05B
04D
06E
026
065
796
7CC
771
066
7E4
7EC
028
778
797
012
074
080
7E5
087
792
7E4
78D
7F5
06D
045
7F6
035
7C0
016
098
77D
066
01F
7A6
765
770
05D
7DF
063
7FF
001
7AA
788
7C4
771
041
7D7
79F
059
766
05D
052
7E7
781
003
7BE
050
07F
021
039
775
005
075
7D2
7E7
79D
021
019
7AB
78D
7C9
772
03E
081
7D9
7D8
7D6
000
75E
07F
053
79C
7BE
7BB
7F6
77C
066
7E8
7CD
066
040
7F1
7BE
7A3
092
025
04B
7F9
7E0
025
089
027
7B2
004
7FD
089
7B2
012
7CB
787
7F6
7D4
036
032
785
069
7EC
059
078
07D
089
07A
01E
072
028
061
03B
77B
775
029
08C
7D4
031
7A9
76A
099
05F
7B2
774
7A4
785
7BF
7C9
78A
041
019
002
7A3
00D
078
7BA
7B8
7B7
78A
76B
7C6
7CC
00B
7EA
7DC
095
04E
74E
044
799
7EC
6C4
078
7C0
752
7AB
707
659
10D
09B
763
73E
77B
78F
037
06C
008
755
724
04B
017
7CC
742
7D5
7DA
7E7
01C
79D
706
7CD
79E
75B
77E
0A8
137
0AA
01E
075
78A
00F
7D7
725
036
719
046
7C6
06C
09B
05D
69C
088
750
7CD
011
7F2
798
00C
0B8
736
73B
76A
74A
090
7F0
795
73B
0C7
074
708
054
749
062
041
797
78E
0D3
705
07E
790
798
020
6C5
09E
7B3
7F3
0A1
0B1
6B4
6DB
7BD
7E4
7D3
784
004
11B
027
038
0C3
75E
026
700
7F5
082
7E9
755
0B6
762
028
01D
02F
00F
7BD
5E7
003
119
030
009
6E1
08F
73B
023
05F
07E
05D
71B
735
6EE
035
6F6
023
03D
049
022
6D4
7B9
7DE
6BD
7A8
00F
01B
020
72A
7D5
755
080
7DB
749
7E6
73B
785
061
6F8
7D2
00D
782
735
06D
768
7B6
79D
771
7D6
7D1
0DB
05B
7FB
71E
072
063
7E1
6F4
7AF
6F0
756
7B3
036
03B
7C1
6DF
6F1
70E
748
02C
768
04A
034
716
7D9
084
773
7F3
7CA
024
7FC
0F5
053
03D
03B
76E
0B9
077
021
70A
748
7E5
012
04E
012
7BA
7C8
7F2
79D
789
09F
72F
7DF
07D
06C
711
02A
72A
736
7B7
6EF
750
766
743
032
029
00B
7D5
029
7D5
096
01B
6CC
7A9
008
70C
10D
091
015
6EC
71A
044
048
064
79F
7D2
7BC
733
76D
7DD
7F4
00E
00D
046
7C2
020
078
095
00B
086
7F7
7C4
778
7D0
79E
76F
050
7DE
057
797
7C2
7D6
089
767
021
087
7C4
79C
7EF
78A
7E0
033
05A
790
799
7F7
7EB
00B
793
08E
76B
009
7CE
7F7
7CB
782
03D
792
7FF
77C
01C
00B
7D9
017
7CD
7F2
044
76E
049
07E
078
04B
03B
041
05C
092
05E
77A
02B
091
790
785
085
095
08B
040
020
788
775
00D
7D7
00F
010
055
79F
009
055
00D
090
7BB
007
7ED
041
76A
020
7CC
07B
762
002
7CF
7E2
791
7ED
045
76B
046
788
76A
7DE
006
7D9
06F
7AD
7D6
7B7
045
088
06D
05B
061
06A
77B
7F6
7C0
008
7EF
7FE
7E2
04D
0A7
7FD
0BF
0C5
139
126
71B
75D
71A
008
756
7A8
7E7
767
7B4
0DC
73B
047
038
780
046
055
0E5
777
70D
6DD
770
75A
609
7B6
696
040
012
79C
004
693
7AF
7A5
7A1
6AF
7A3
7F7
782
044
048
7A0
7D4
02A
701
093
7C8
78F
7C4
023
165
200
6D3
7B0
733
0F6
78D
032
75A
145
785
6EA
77E
010
6EE
009
757
040
756
07C
01C
01E
6E2
741
324
170
0AD
742
7EA
08F
784
01B
110
7CD
034
75E
0FC
7A9
6B7
04F
0DA
7C9
055
7AA
7D2
757
018
048
78D
74B
7FC
742
0BD
716
018
072
047
7D0
13A
7C8
745
025
7AD
109
735
752
7CA
0B7
759
00C
75E
707
043
78F
7C0
031
7B0
09F
019
7F8
048
081
763
79F
766
7D4
00D
7EA
7FF
003
05B
016
077
061
08F
794
09B
000
7FA
095
7E8
05A
07D
7E4
77D
7C7
082
001
776
7F0
790
78D
012
7B8
095
7B3
7E9
7F0
797
038
7AE
796
07E
087
7CC
7C4
06B
07A
039
785
7C1
7BC
06B
06A
77E
086
007
799
7AF
7BC
7B5
7CD
7AA
787
067
7F0
029
7ED
78E
050
7B2
009
7C5
040
03A
776
006
033
7B3
04D
784
038
032
78D
070
76A
7B5
7F9
775
7AF
79C
019
049
799
088
7BB
7E9
02E
7EA
02C
7F4
77B
7E0
079
7AE
02A
08C
7E7
001
044
08E
79F
03A
05C
7F6
7E3
765
796
769
06D
73E
769
049
082
01E
7E7
05D
7C1
07A
097
7F9
7F7
712
057
005
050
725
77D
095
776
06E
74B
7C4
019
022
76A
74F
01F
73A
7F4
6FF
7D7
74E
7B8
75D
723
062
7B2
035
77D
7B2
02F
025
056
766
762
72D
061
02F
7DC
736
743
00E
084
7DB
78F
0CF
0BE
075
05E
055
71F
793
008
006
01F
7D7
014
01F
71A
749
7D1
7B3
78C
7CB
047
74D
007
7E1
768
725
7B8
0B6
7CA
03E
017
01F
6FE
00B
79E
7A2
74D
7AE
031
07C
78F
018
088
7EC
752
7DE
7C1
7FB
78B
04A
00D
02E
79E
09E
759
044
7CB
6C5
04E
73D
70A
789
008
019
6F4
7CF
069
06D
787
02C
72A
743
7CB
036
05F
76D
060
00D
7E0
7B8
05D
01F
784
7C7
057
77A
786
065
7D4
7CD
015
7C8
090
796
77D
033
7CC
06C
076
088
7FF
7E4
047
77B
791
072
038
07E
03D
7E9
7C9
08D
7A2
057
033
003
795
08C
096
7E4
099
047
02E
00C
76E
079
78F
79F
01E
02D
01D
7AF
776
7F4
787
773
093
046
76E
79D
7F4
778
769
096
790
011
75E
065
071
04E
03E
783
7D7
76F
022
05D
094
7BA
020
01B
787
7CF
08C
004
036
031
7BB
007
095
08F
03E
01C
074
034
7C9
03D
75F
7D8
032
043
023
076
7C8
063
7EB
783
791
793
026
78F
055
061
072
060
7ED
7BF
03E
7A3
7C1
084
76E
056
7F0
021
7CE
06C
726
7BF
03C
7F5
7EA
0BC
00E
031
7FD
7E8
722
794
024
73B
785
7D4
005
000
721
027
022
728
7E4
73C
74E
070
02E
02C
7CB
749
7EB
786
08B
0B4
002
733
7A1
7B8
78B
02A
084
76F
7ED
08F
00A
797
64B
7FD
6E1
7E3
06C
7E1
07D
7BF
738
03B
001
772
028
061
004
04A
01A
6A7
7C2
07E
012
01C
79B
7B1
7B0
7F3
055
059
742
106
0A1
7AE
017
027
061
0B6
079
7AD
105
786
690
0B2
7BC
04D
0C5
761
73B
78F
7B8
6D9
08F
02B
094
78C
790
797
089
744
051
04E
7F5
638
787
7B7
0A2
013
6FA
0F7
0A4
7F9
78A
02B
019
00A
017
0AD
051
767
7E8
78A
7D6
091
048
76D
7A0
015
7C8
091
097
7FA
7DD
7F4
020
068
7BD
028
065
005
7C4
008
094
76A
7D3
02C
06A
00E
05D
7D0
7D8
041
7C0
092
034
7BB
004
7B3
771
060
03C
074
7CD
7A0
791
7E2
098
7E2
7A4
779
76B
7DA
01E
789
7DC
092
065
7EC
060
7F1
7BA
033
776
08A
775
76C
026
062
7D0
010
79B
7A1
04E
7AD
7F1
046
7F0
797
79D
789
084
04A
795
078
779
09B
062
777
788
7A3
78A
783
028
7F5
782
773
7B3
7AD
7AB
798
095
783
02F
04E
04D
774
04E
07E
771
04B
087
7C3
7F5
018
05A
781
796
7AC
02A
7C7
07D
7D7
76E
046
7CE
03F
03F
6EE
767
03C
76A
783
052
098
03B
094
792
778
0A2
7F6
042
77C
062
7CB
7AB
068
7A8
7F1
7C6
78C
001
7F0
7DA
0AB
6C7
07A
789
75A
7FF
00C
7EF
770
667
006
6BD
009
737
026
02D
7E8
7E0
7F5
763
7F2
6B6
015
7A5
027
71A
03A
7E9
7E0
00A
02E
032
038
79D
052
75F
751
685
7E2
009
029
7FC
041
754
7CF
054
05C
77B
058
7CA
7DF
7C9
039
044
05A
768
035
037
704
6C5
7BC
7B9
7E3
745
6E8
068
027
7D1
04F
077
01F
057
0A4
019
050
6CD
77D
033
7B3
747
7AD
7E6
036
00C
75E
09E
654
7D4
687
7C6
033
723
798
014
7F2
03C
7E1
64F
003
069
028
6AE
003
77E
063
011
001
7FA
04B
08D
7F7
039
067
796
023
04D
7CA
04C
794
067
7F0
79B
018
787
00E
033
79C
7C1
024
79A
00A
7C6
096
00E
78F
08D
06A
797
76A
04D
7E6
034
065
032
787
799
081
7ED
078
04B
02C
05F
055
7CE
7D4
7B1
054
03D
7C6
795
7E0
7A0
7E9
7A1
075
76E
004
02E
02D
7E9
7B7
09B
092
011
769
04E
7BF
09A
7AD
01D
09B
7A8
799
049
77B
006
790
08C
7FE
760
02F
7D0
057
7F0
089
7C7
04E
02A
046
7EF
7DE
781
786
023
798
06F
7EB
7F9
784
7FB
76E
02A
770
7F3
047
04A
005
037
7CD
081
7F5
764
7A8
02A
7A0
7C5
086
799
7DB
7F4
777
06B
793
796
7E2
034
02D
029
009
064
010
78D
7E4
7AF
774
032
773
036
772
76D
79A
023
036
7CD
785
05B
023
7BB
07A
076
03C
064
020
04A
031
798
7A3
7E4
76D
068
042
026
096
7CE
092
00F
76E
001
000
047
786
038
7BF
76B
7AE
763
7E4
7A1
04C
066
7B8
7E0
7DE
031
787
014
7E7
7AD
7DA
7DA
072
082
025
025
7E9
769
08B
7F4
781
7C1
777
083
7A1
7ED
024
7EA
00C
776
02C
7A5
026
762
059
010
7D7
07F
797
7D1
7AE
782
063
7AC
090
000
007
05C
79E
782
04D
052
030
7A0
031
05A
096
7E3
039
7C1
054
7D7
009
07A
086
7DB
7E6
05F
7D8
7D1
03E
7B5
7D6
085
07B
04C
78B
01A
7C4
7EF
770
006
056
7DA
096
7A8
062
042
026
034
7AC
073
05B
7DC
7F7
7BB
7E3
7F3
7AE
7FE
096
764
7F5
087
028
002
79C
00E
7DB
092
067
760
7D3
7A6
786
7FA
06D
008
04D
071
032
006
7F4
063
06B
06D
08D
088
07E
04E
047
76E
7BB
780
770
08C
7E8
7E2
05B
773
78D
7BB
035
052
76F
7AE
79C
05F
7F1
7A0
7D2
083
062
005
082
084
092
07A
7DF
02C
01B
072
7B1
022
019
057
04D
03D
772
797
7AA
058
069
062
031
05C
071
08A
088
770
097
04B
010
7EE
7EF
08A
034
7B2
7A6
779
7EE
035
02E
051
7F1
7F6
7C8
7A1
066
029
7C5
710
02D
001
7C6
6CA
78F
0FA
06E
7E4
785
774
7E2
758
7CD
71D
058
748
71B
6A5
06C
07D
7E4
73C
705
7A2
6D0
7E2
07E
7FA
6B2
00A
06C
769
028
068
76E
030
74C
05F
78B
6F0
7F1
0A7
7E1
782
049
7CE
7F7
0AF
7A0
7FE
77B
74D
6A1
7AC
7A9
7D8
073
04B
78D
63F
051
663
76D
056
036
701
04D
7D3
7F3
7EC
751
07A
7F0
7B1
738
71E
03E
75F
791
009
0C5
07C
781
762
6B8
7EC
7FC
05E
0D9
7ED
717
77B
646
6AA
024
726
6AA
7B6
08A
7F6
7B3
7F9
699
031
092
039
789
71A
06D
036
7B0
08F
013
061
7B0
769
086
09F
72E
7AB
7CB
745
759
7CC
787
76C
77E
7FD
050
7DF
01F
007
76A
023
7DD
059
7EF
006
79C
766
010
783
77E
07D
78D
7DB
7A2
08A
788
7A3
014
063
026
7AF
096
7B2
784
065
03F
046
030
7EC
007
06A
78C
03C
043
7DD
070
7B8
079
03F
041
77F
77C
042
7A6
035
7F6
7DA
073
097
069
044
7A0
079
7AA
078
7C5
799
045
01E
091
767
7CA
760
03F
7E5
009
7D2
084
061
08D
7BE
776
08C
069
02B
773
766
001
044
79A
77B
7E4
7FF
08D
7C3
09A
089
79B
7BD
790
7FB
7C8
03D
041
093
001
79A
77B
798
776
779
788
064
01F
011
07E
08D
7F1
7DF
059
04B
07D
7B8
014
055
092
7A4
000
045
7DE
794
7CB
7D5
062
7EA
753
7B6
002
7DB
7C3
08F
014
092
791
7FC
7C2
785
05A
7B2
000
7B4
019
788
765
06C
7CE
7CB
067
7AA
767
79C
09F
028
7B0
7E0
07F
02E
7A7
7CF
7E2
03B
05C
796
7C3
74B
042
7AF
094
069
7DB
074
7EC
7BA
000
7AB
7AE
79A
793
02B
792
08F
087
7DA
00A
7B6
0A5
068
029
7D8
066
04C
05B
087
787
759
037
004
01A
7C8
7DE
787
03B
024
7D2
7A4
020
02B
07B
7C8
7DE
7B2
050
0B4
059
02C
0AE
773
0A8
05C
7B5
064
781
7E4
05A
796
063
7C3
059
78B
7ED
02C
01E
069
03B
77F
779
7BA
06E
763
075
01F
7DF
000
012
773
024
7CD
006
03D
7EC
7E3
09B
09A
7B8
7F8
08C
7FD
7E3
023
7B3
009
052
7FD
05E
090
031
032
07B
024
7F1
7AB
060
033
050
02E
045
7C4
05E
08A
053
01A
794
7EB
79E
079
03F
03B
7AF
08B
034
7A0
7B5
78E
077
76B
7C6
7F2
796
006
033
79F
046
783
063
006
76B
76A
029
7AF
7F8
7C1
018
7CA
084
077
7B9
763
021
78A
04E
070
7DB
084
01A
06D
76B
055
088
7DE
05E
7D4
7DF
01B
03C
782
7BD
7AE
7C7
026
02C
028
7B4
7CE
7FE
021
05B
07D
078
778
77B
096
088
764
04A
7FF
798
7B6
031
7CD
7FD
010
7F8
788
026
055
095
7BA
76A
079
7C9
7A9
7DD
097
76E
765
7DB
027
012
7BD
01D
036
003
08D
008
02D
7A2
7CD
040
013
00A
075
05A
78C
038
095
015
073
092
096
75E
032
042
078
7CB
7A9
06A
061
7BD
080
7DB
7F9
795
7E3
7D8
7FF
057
7D0
79D
053
7A6
062
058
017
7BB
049
79A
02C
77E
024
02A
087
75E
7CC
002
08C
026
036
796
083
796
773
099
04C
777
07D
08E
067
05A
06A
081
7C9
08B
023
020
09E
017
085
7A0
06F
782
05F
027
050
015
7FD
7C1
7B6
077
7EA
794
7A1
004
01C
002
75F
792
08A
09A
7B0
043
074
086
077
7CA
791
091
7DB
7E0
05F
024
7AC
049
021
7BE
07C
035
05A
76E
17A
040
0A1
068
028
7B9
7D9
781
082
781
7EE
058
7ED
7F6
019
7B7
7A3
045
02C
025
7C1
097
7D7
06E
046
765
7F4
763
774
77C
086
7D2
7EA
05F
79C
00D
07F
7F5
007
7A0
07B
7E4
06C
074
03A
047
7AE
7D1
002
78F
02A
778
7C0
7DC
7A2
096
7DC
091
02D
008
7C1
08B
7B0
7DC
7D2
00B
784
778
00B
76C
7B6
042
772
76E
7AA
09A
7C9
786
028
7B3
062
094
7CE
7B4
776
782
780
796
7C6
009
069
048
7E3
7E7
031
02F
78D
794
7DD
003
04F
7E9
021
7F7
096
776
764
775
7C4
021
06C
78C
087
775
00A
017
062
7B6
091
036
056
7E0
7D3
7FA
035
040
78E
009
784
03C
067
047
026
76D
020
7BC
7FE
050
7A5
005
7CE
742
76B
093
7B8
075
7C0
798
7C3
066
085
04B
04D
044
02A
7C1
070
02A
038
05A
053
7CB
070
7E1
032
7AC
00D
066
03F
069
775
788
029
069
79A
032
075
7B0
039
7DC
76E
068
060
79D
779
067
071
030
058
776
03B
01D
071
015
08D
789
7F1
798
047
005
077
780
7D1
045
78D
074
048
01F
79A
7F8
018
7E7
041
7D4
07F
058
09B
037
02C
035
7A9
781
7AE
764
7C7
7E8
789
7B6
7C8
7AA
0A0
00A
044
029
00C
76E
01C
070
084
7CF
00A
03B
071
7AA
7C0
79A
7E0
7E0
038
031
042
004
093
04E
086
7B3
076
7A3
057
7B6
79A
769
7A3
03B
0A4
7ED
7C5
743
00E
74C
6DE
76E
75F
05C
776
015
7AC
742
007
7C9
00E
054
083
7BE
0BE
058
77E
743
7A6
06F
791
767
749
752
7E8
068
6D2
0CE
0A4
014
7FD
767
04D
081
7CF
76C
7FB
054
02E
71C
775
747
032
023
063
7C1
7B2
046
030
01A
748
7F5
065
72D
7CF
6D6
008
665
791
08A
795
7BE
741
7A3
791
7DB
7D2
04C
0A2
7B2
084
75D
74E
779
7E8
02C
705
788
75A
05C
7F1
042
755
70A
704
79D
72D
7C8
071
765
764
5D3
000
01F
748
7DF
7BA
0D6
731
0A1
091
6F2
02F
767
7E0
071
7BC
024
022
7AC
7DA
039
740
7D0
019
023
7BF
7D2
73C
06B
773
00C
04F
7BF
7B7
013
7FC
024
06D
076
027
04B
017
7C8
05E
779
00F
05F
03F
7D6
7C3
78D
79D
770
06C
769
7F7
093
098
7FB
7A4
062
04A
76A
047
02F
7E2
7CC
03A
7FA
053
799
766
03B
068
068
79E
053
03A
018
776
024
767
058
00E
02A
7F6
060
783
7BE
029
010
097
783
038
779
7C7
065
04D
081
7CD
7B0
78D
046
77B
76A
081
7D9
776
008
097
04C
7E1
065
091
02E
7BF
074
073
7CD
7B6
033
7F1
091
7F7
044
7DD
03C
77E
072
769
089
7E4
7B2
789
062
018
04C
780
044
01F
7C7
7E9
7FC
018
7FB
05F
7A1
7CD
7A9
770
7E1
7A0
05B
082
791
77A
078
04E
02F
7A6
780
791
7B6
057
7CD
089
786
01F
07F
017
025
7BD
793
790
799
78E
7C3
7A3
033
05B
7CC
7FC
7EF
057
7E1
090
03B
068
7BD
06A
00E
7BC
7C3
7AD
77B
7F5
7DF
7F5
7F3
769
032
7B7
7B4
7D9
090
7DC
795
068
7D7
763
770
07B
07D
7DF
7D6
064
789
79C
009
784
7D0
04D
016
029
779
04C
089
769
7C3
02F
766
04C
083
02D
797
783
042
026
76B
052
096
785
774
7E5
061
789
049
04A
00B
04F
079
7F6
783
077
7E5
067
7CD
053
02A
058
79F
795
031
7BA
01D
793
7F0
012
08B
771
7D2
767
798
034
038
00D
791
083
03A
002
055
7DD
02D
08D
7BB
744
7E1
72E
783
7F4
04B
7DC
7D3
037
7CF
775
775
000
738
79D
7D3
094
76B
722
73C
667
79A
7B7
6FA
738
06A
7A7
6A5
042
06E
741
79A
79D
7CF
7A7
7C9
063
0BC
056
0B7
772
7D7
731
72C
025
071
7D7
04C
043
792
763
6E4
01C
7FE
7F3
7D2
7AC
089
04A
743
067
796
74A
05B
065
0FF
793
7CB
7E2
056
7A2
03B
79F
7E8
01C
041
033
7FF
7DF
04D
0D0
7C8
7FF
7C8
04A
775
05C
7AD
080
012
0C0
027
6B7
7E1
7C5
6CA
760
0C7
7D9
70D
021
00C
01A
7AE
7DF
008
7FD
753
023
058
044
003
03D
73A
0F5
013
721
78A
7E6
739
7B0
7C8
76E
735
01B
7BB
7B5
08F
075
070
7CE
7CD
08B
007
059
7C9
086
791
774
7AF
7FE
7F7
7A6
76B
06F
7DF
012
78C
7F8
078
7CB
047
02B
7B5
027
780
020
033
79C
03F
082
7E4
7E6
7CB
03A
021
04B
07C
049
79C
009
7B9
005
7C6
7F3
03F
7C4
006
7E5
7B4
7EB
09C
03F
04D
081
7F0
7A8
022
7DE
7B9
01B
054
7FD
7F6
071
081
03C
01C
7E2
053
7A5
08E
79E
06C
7CC
051
04F
7CA
023
797
7B0
058
036
019
082
012
009
01C
799
05C
7A6
788
7E0
7CF
7C0
7DD
7DD
015
784
00C
7A3
76B
7B5
7FA
03B
089
76F
080
02E
08D
7BA
7C8
7FB
769
7D5
7BA
7BB
072
024
7CD
011
06C
7C1
7BD
77C
0AD
037
7C7
074
7C9
06A
0AF
0A2
033
04D
784
018
7A0
007
081
013
093
7B1
050
080
77C
7B7
049
047
011
007
74A
791
7AB
7C9
010
7D3
007
7AD
061
038
7EA
0A2
04D
7FA
7BE
77A
082
78F
095
05B
07D
01B
7F2
7CB
053
7ED
791
7E5
0A8
041
7EA
08B
060
008
760
7E3
7D7
020
033
012
78D
02F
043
07D
7D0
042
061
7C3
7D5
0B8
7E9
795
011
7F6
038
02E
76F
79E
071
07A
056
099
7A2
799
042
029
004
792
774
074
78A
7D9
03E
075
007
787
008
7D4
019
785
080
06E
7EE
7BF
025
08F
045
7D8
101
07F
004
024
080
7F2
7C0
79C
06E
0D5
092
09B
79F
069
01D
7E7
7FC
075
7A6
03C
7E8
76C
08B
7E9
044
7A9
786
7BA
7BC
7F2
79D
034
07A
047
006
00F
02B
777
05B
7BA
769
077
7FC
068
7E5
7C8
7B1
002
024
03B
76A
779
75D
7BD
7D2
04C
009
7E3
063
7B4
04A
7EE
7B6
07F
7C8
7FF
088
093
05A
7BD
008
07D
76E
045
030
782
027
7A1
043
012
094
085
01E
00F
099
083
7E1
011
7A7
7D4
057
005
7DF
7C2
7F4
054
7CC
7AF
098
038
04C
05D
059
7BE
7B7
079
7EC
7BD
785
7F4
00D
7FE
09E
094
7C5
75F
7B1
7AF
08C
7B4
781
0A2
776
7AC
76E
7D8
7FB
7A1
028
781
7A0
7BF
02F
051
7CF
063
75E
06F
7EA
7AD
7AA
054
7D2
75B
7FB
76F
07F
0B7
7FC
07B
015
032
0A4
7F6
046
7D8
7E6
0C6
746
7CF
067
73F
796
7EA
77F
0C7
074
054
777
053
76A
785
079
739
7B3
037
0EB
7ED
027
7D5
097
776
04E
02A
7B7
76A
021
7C9
068
74A
788
05E
09C
7AF
0D0
060
095
7C6
051
7C5
769
732
070
71C
04C
7D8
000
7C4
7DA
09A
06A
071
7DE
777
78C
078
084
027
7C4
0C1
7D0
7A8
023
097
03A
029
078
731
7A1
05F
7B3
77B
08B
7A0
7AD
7DA
7E7
024
00E
751
7F9
01F
03A
087
768
028
792
037
010
79E
045
7D4
7D4
744
0C6
7DF
775
728
7F8
0B4
775
6BB
783
00F
707
03C
0DE
7F6
081
7B3
79B
7A5
017
778
799
7BF
77E
7A8
0B9
78A
7A3
048
02C
00F
084
029
094
013
7FF
04E
7E5
043
7CC
7C9
042
7A0
7C6
089
7ED
08C
797
7B8
7EE
054
7F8
093
77B
06D
00D
7FE
785
038
03F
7BB
05D
076
090
057
7C2
7FA
070
7BC
05E
751
03F
05A
795
791
79B
078
007
778
7F6
7B5
75F
088
7F2
022
7CB
03D
7FC
7EF
023
0A1
7EC
7EC
01D
7D9
02B
7A2
7D0
05E
769
049
093
0AC
7BE
7DB
76C
7AD
7C1
7AF
030
084
03F
091
7E5
789
7E4
03F
093
029
787
77E
032
085
782
7CE
7BB
061
778
001
009
088
019
05D
774
04C
7E4
76E
7D3
029
02B
7C6
07D
05F
04D
775
781
000
7E1
7EA
7A3
7BB
7ED
7F1
011
7E0
017
019
014
04E
05C
04F
7C8
081
028
7C5
08F
791
081
7C8
01E
04D
7D6
023
798
7DD
7DD
02F
7AD
7E3
7EC
7C3
02D
004
053
00D
03C
7A1
791
7D8
00E
774
04C
00D
009
79F
092
7FE
7C0
77B
7CE
7AB
7B3
04E
089
788
79B
7A8
782
07B
79E
7C8
7A9
7B2
7F8
7D2
7E0
084
7E4
093
789
07B
7BD
087
7F2
04B
7D1
7AF
76F
7B5
097
05F
7A2
7A4
059
00A
7FA
008
790
073
07C
05C
7D7
7A1
059
066
00A
00A
7EB
024
7B2
078
074
01B
7A0
030
775
7EA
08B
783
046
01E
772
778
07E
023
77A
090
77F
765
093
053
03B
7C3

