01B
EC7
FEF
0B6
097
E95
FF8
ECB
FCC
FFD
FFD
FB1
ED9
DD1
0AB
057
EC2
EE9
F0E
0DE
C90
E46
06E
EDB
FA3
FC3
0D2
0D8
FBE
FDD
F92
E5A
04E
00E
FDB
F79
073
016
09B
D71
FD5
0DB
09B
FDE
099
EFD
03A
01B
F90
000
F13
FEE
FE8
F50
017
FB6
D0E
ECC
00D
ED4
F5D
037
F77
00B
FB2
070
034
F24
025
057
FD4
EDD
F40
097
07C
F7C
03A
00E
021
037
F9E
F7E
FB2
FD7
FD5
01B
01A
06D
02D
FFF
EE0
02C
E99
EFE
0AF
005
063
F49
F46
079
FF7
007
01B
F05
001
F24
08F
0D1
006
FB2
EAB
E41
F93
088
FCA
F90
E8F
052
FC7
003
FF2
0B0
D5B
EED
FA9
038
091
FF2
F46
FB1
FB6
0B7
EFD
FEE
08E
09A
042
003
045
F72
02E
002
F6C
FC6
F40
FB6
0B3
085
02F
004
013
FAD
F58
FE8
FCB
FC0
FAA
F5D
E39
EDC
0A7
FA7
FB3
FCF
E58
F65
FB9
0D6
F8A
FDD
D63
D4E
F33
008
04C
055
EF9
EA3
049
05E
FF5
0E4
04C
E2B
018
0B5
076
FDF
FCA
E3B
04D
FD4
FC6
05E
E6F
0DF
030
F87
035
FF3
FAC
083
05C
08C
023
E93
F5E
022
F8B
02A
0FE
09D
FD2
F66
039
EF0
01E
08F
F89
0BD
F98
024
01B
02C
FAB
F52
07A
EDD
F09
0DF
FD7
FA1
125
071
F33
003
EE5
019
F37
10A
052
062
F11
E24
063
064
031
FB4
012
E2C
01F
03B
F5A
07E
EC0
F95
07D
F52
054
07A
FA4
F59
06A
FEB
FF9
F44
F6A
FAB
04A
05F
F91
FFB
F86
008
03D
F6F
FB8
00E
F58
FE3
022
01F
0A1
04F
E79
E91
0A3
F4E
FF3
FA6
06F
051
089
FB0
FE0
076
D33
F54
F91
083
041
062
F33
055
009
F37
022
FF2
011
D3E
E7F
073
FBC
03C
F53
EFC
F5C
FF7
FEC
F54
F1B
0A6
06D
0BC
FD6
E0B
EB0
DDE
F71
11B
ED0
F92
0BE
EC5
F79
F1B
06B
FCC
0FE
ECB
04A
04F
F79
D47
13C
0C7
EC5
F4C
090
F25
FBD
013
0A7
03E
F60
0D0
027
F7F
05D
114
097
055
EFA
FE7
024
FF1
F78
FAA
017
F1F
E08
054
FAD
FCC
01A
F67
F85
FA4
089
016
AC5
BB1
05B
EF6
F81
04A
F72
E16
01A
020
F12
002
12B
FD1
EDC
026
053
FC3
DD4
FA2
FD6
0AB
0CB
049
0AA
E80
095
0F3
078
FBB
F07
E18
FE4
032
F71
F7B
056
023
FBF
FD7
F32
050
ED2
03A
0A0
0C9
066
FAD
FF3
EEE
062
07C
FDE
0CE
EC0
00F
07F
FFF
03C
02F
FE1
EE3
048
FD6
07A
03E
022
0D8
009
FBD
F8B
FA9
FE1
F7A
FEF
0FA
02C
F19
0A8
0C2
019
FAF
F92
F9F
03B
0DD
02D
FFF
086
FFE
007
0B8
028
07D
046
FAD
FA5
FA6
00B
F2D
EA4
F3F
128
10B
F26
EA6
F8F
F04
103
03F
F1E
081
F59
F79
F53
EDC
F82
FDC
03F
053
E21
F7B
046
05F
0A7
045
0C9
FA6
083
FA8
F3D
04A
0C9
EEB
03C
F9E
F6B
007
EC6
F99
013
FE5
F48
037
FD6
020
F7A
05B
F60
072
0C5
F47
008
FB7
FA3
084
E5A
ECA
0DE
FB2
023
06E
E26
ED5
03E
FE7
F84
0DB
CE0
E6D
049
F8D
E7F
026
0A4
FED
005
F81
FD2
F6D
EB4
F31
F9A
F54
027
044
F0E
03F
06D
FD6
00F
EFC
081
0DC
001
F76
0FF
F4A
FB0
F1B
FFE
F31
FB7
F92
F51
ED6
066
112
F6C
FED
0CF
E07
017
07F
F17
0A1
FE4
F00
008
079
061
011
FD0
F42
0B6
019
FFE
FCD
F67
080
F95
0A9
060
0BC
00F
FE1
02E
034
FBD
062
034
04D
014
076
F39
F80
F8E
F6D
F6F
F3B
FBF
06A
EF9
ED9
FFC
03C
ECC
FAB
D9D
D8B
F65
FF4
FFB
F3C
FB7
FF2
053
FEA
032
FC4
FC6
FB3
F85
F9B
06C
EBA
F66
033
01D
F69
008
076
FF5
09D
03B
088
FA6
013
FD9
F0B
02B
10B
077
08A
053
F09
F53
FAF
FD4
F1F
F4D
F2E
F95
053
054
086
155
EEA
084
FA1
EF2
FFD
EE1
01A
0B1
FF2
FE2
022
FAC
054
066
FFF
018
FF7
004
F2C
F8D
F9D
EFD
FB4
F98
065
0BF
FF6
EFD
F82
0AA
0E1
FB5
029
031
017
F1B
EA1
004
03E
FDC
090
DF3
EEE
073
129
00D
062
F0C
EE6
FAD
08E
FAC
FF6
1F1
E29
FE0
013
F98
FFB
F4A
083
F8A
0C1
FD1
F23
04C
01F
F8D
F75
0E3
F8F
02B
F3E
F3F
031
043
00C
E1D
07A
FA0
101

