3F9
3A4
042
3F9
3F2
3F4
3F9
3F9
3F9
3F7
3FB
3F9
001
20D
344
3EF
3F9
3FA
09C
3F8
3F6
3ED
3F9
3F9
3EC
3F9
03E
3F9
00F
389
3F1
3F9
232
3F9
35A
3F7
046
014
3F8
3F9
3E6
247
3F9
3F9
3EA
3FA
3E6
3D4
3F9
06D
203
3F9
3F9
3EB
36E
0C5
3EF
3F8
3DC
3FA
3F2
3F9
3F9
3F9
2E3
3FA
05C
3E5
3FB
3E3
3F9
06E
3F9
357
3F8
3FA
3F5
3D8
3E8
3F9
00E
3F9
3F9
3F9
007
3F9
3C2
3F9
3FB
3F9
3F9
3F9
055
3F9
3F9
3D9
3DC
3EC
3B9
353
3F9
1B2
3F9
2D7
3F9
07D
3FC
0C7
3FA
3FD
3FB
011
3FA
3DD
3F9
3FB
3F9
3F2
382
3F9
3F9
3AF
3FA
3FB
3F7
38A
3E6
3F9

