019
7E9
01A
7FA
00E
7C9
7FE
000
7E8
7FF
7F1
7F3
7EC
02C
0B9
7C9
7B3
7F3
7DB
7E4
7F8
7EC
7DB
006
015
012
7F6
001
072
7D6
000
7F0
082
002
025
010
7ED
772
7E6
7F9
7E6
7FA
7EF
7F5
7F1
00A
7F8
7C8
019
7BA
08C
7FA
004
7F8
7BF
043
003
7F7
7F7
7DC
7EF
7FD
7F4
7EB
033
7FB
028
015
7DA
013
017
760
00D
030
7E6
7F6
00B
7F6
005
7E9
7FC
017
7EA
7FE
7FD
7E7
7FE
01B
7A9
7F1
7EF
00D
7E7
011
7F2
7E7
7F2
000
7E7
000
7EF
7CE
7FD
7D4
7EF
7E5
01C
064
7DF
7EE
004
781
000
7E5
7DB
7E4
7FA
7F8
723
7FD
7FF
7D7
014
7DB
016
730
7D1
7E0
7E9
085
7CD
7FD
7EC
007
7F3
7E1
004
7EB
7E7
7FB
7C8
062
005
7E1
007
7FE
77D
00D
7FC
00D
7F8
009
001
7E2
7AF
7DE
765
04D
001
7F7
065
7F1
0BD
7D7
788
07B
7FB
7E1
7E7
7ED
7FD
010
009
7F5
7E2
78E
7DC
789
7E6
7E6
7F3
7E4
79C
7AA
019
00A
7F2
007
012
01A
7FF
7E9
0B9
005
035
014
7EE
7F9
00F
7D2
7E8
777
7DC
7EF
008
017
7D4
00A
7D1
00D
011
005
7F1
7E3
047
017
79B
7F3
013
004
7DB
7F2
7DD
00D
01C
7C5
04B
7B8
011
000
003
7AD
011
787
00F
76F
019
015
7F3
7B2
7F8
7F6
7FD
004
7E0
7E9
019
009
001
048
7DB
7ED
010
7E3
7C4
7F2
7FF
02A
7CF
003
7F3
7ED
7EF
001
7E9
7E6
00B
7E6
7DC
0AA
00C
7DF
7F1
01A
7DF
010
002
7E3
7E5
7E2
7F0
00D
008
7E5
057
7EF
7FF
7DB
78A
006
022
006
789
053
005
017
7F9
019
7EE
002
7E1
005
7F3
070
00A
7EC
014
7DB
00E
7ED
7A2
793
7FB
7F1
00E
7F2
00B
7D9
7F6
00E
065
7CC
7E1
7D3
016
00B
006
068
7E1
786
7D7
7E3
7FA
7D8
7F8
00B
7FF
7EB
7FB
012
006
7DE
7F6
7E7
7FA
7EA
009
7F4
79F
7DC
7FC
7F9
7EE
7F7
00F
7AC
006
7C4
7EC
001
7EA
73A
7F8
7B2
7F8
00D
7FA
797
7F9
7FD
7EE
7F0
7FB
00F
7C4
7D9
014
77E
015
7F0
7D8
758
001
010
011
7AC
07E
012
00B
7F6
00E
7E7
7F6
023
00C
7F0
018
096
7EE
7E9
7F6
7FB
7C9
000
00F
7E3
00A
7DD
012
010
7BB
7FF
735
7BC
014
007
014
01C
0FA
002
7D3
7D2
01B
000
7EC
783
00C
015
00F
7E6
013
041
7D8
71F
05D
7F1
008
002
074
7AA
001
019
7EA
014
01F
7E2
011
7F9
008
01A
010
7EB
7E3
00D
012
7D0
7DA
012
01C
7D8
7E8
005
7DF
7DB
034
012
7DC
7E9
7DB
7F3
01C
7FB
7D9
7E0
7FF
7F2
7DA
00F
016
7E1
019
006
02B
04B
005
7C9
00C
096
00A
788
7F6
003
01A
7EC
7E1
77F
00C
7F1
01C
016
7DA
7E5
038
7FC
7F6
7C5
005
7EB
7F1
79A
7EE
7E5
015
03C
7F2
7E2
7EB
7F1
7F2
7DB
7E3
7DD
007
014
7C7
7D1
06C
7C1
7D0
7E2
77C
7E8
7F8
7E1
7FF
7E7
7F1
7EC
7E2
7E3
78E
038
7DF
7E7
77F
010
7C8
7F1
7FE
027
008
007
7CB
79C
7F6
7DC
7F8
7F9
7E5
005
013
05A
7FE
7E0
7FC
003
00F
79D
7E4
7F1
7D3
7EB
7EE
007
7E7
7EB
058
008
7F5
7FC
7E1
7E3
005
7EA
7F8
027
013
7EF
009
00C
7F0
7EB
798
00D
7F7
005
7FD
00F
0A0
7E9
7AE
7E8
014
7DE
781
7E1
014
7DF
01B
005
034
78A
7F4
7C9
7F3
02E
7FD
789
7F3
05F
7ED
7E9
7FE
7B3
00B
7C2
7F4
00E
7F4
005
702
7EB
018
7ED
00A
005
7D9
741
7FC
006
7DF
7ED
7EF
000
7D4
7EA
007
00A
001
007
7EE
7EF
7FE
7CD
7EC
019
7EB
016
008
01A
7D9
7FD
009
7EB
7E8
7E9
019
006
7F3
7E9
004
012
7E0
7E1
7F1
00A
009
7F9
015
006
7E0
004
014
006
009
7FD
007
7E1
002
043
7F4
7FD
7EF
01A
01D
7EA
005
006
7F8
7F8
7E0
007
007
7EE
7BC
7ED
030
7E2
008
7F4
019
019
7F9
7F0
7E8
7F8
7EE
7EF
7F3
005
00A
7FC
7E8
7F7
01B
7EF
7E3
001
00C
7DB
000
012
035
7EB
7E5
00B
7E3
7F5
7EC
021
7EA
7F0
003
005
7E4
7FC
7E9
7E7
014
003
7E4
019
012
003
009
7EF
7E8
7E3
7EA
01A
7FC
00D
015
7EC
014
013
7DB
009
011
014
7D6
001
01B
023
008
015
7DE
00D
7EC
00B
008
037
7B9
004
002
012
7DA
7F0
7E9
7D8
7DA
00D
7E6
7F3
7DB
7F0
7E8
7EF
005
7DF
7ED
015
7D1
7F8
7CC
7BF
010
7DD
7F1
025
012
7F8
00E
7F3
004
7C2
7E0
7E6
7F9
7EE
7EF
003
7CF
7E3
019
01E
7EF
020
7FE
7F1
7ED
015
019
7EE
00F
7E9
018
7E5
7FE
7F3
009
7B9
010
7F5
01D
7F6
7F0
7E4
023
00F
011
7E8
016
7E5
013
006
00C
7F7
017
7FE
006
7E6
003
7F5
012
00C
027
00F
7DE
79A
7F3
000
001
7EB
012
7E7
7E9
7EA
7FB
7B4
00D
7E3
006
7DA
7E7
7FA
7EE
011
7EB
011
7F7
016
7FE
011
7E9
7E9
006
069
000
7E9
7FB
017
010
018
015
013
01C
000
7D7
025
094
7D9
7EF
7DB
03E
012
7E8
7F4
00E
7F1
7E0
7FC
00D
013
080
7A0
008
00B
7FF
7E0
76F
7D8
7AC
7BB
015
00D
7CC
025
00A
013
00D
7E8
7DC
7CF
7EF
017
01B
7F5
7FC
010
783
037
001
018
7F4
00F
7E0
011
00F
7EA
05D
7D7
071
012
7F2
009
7FA
7A1
013
056
024
7D6
7DB
7FC
015
7F3
7FC
7FD
007
015
7EC
7FC
03E
7DB
7F1
7EF
7E5
005
057
005
7F2
7F9
7F4
7E5
7C7
002
011
7DB
004
04D
7E6
7C8
7FE
038
011
003
7EA
023
7ED
7BB
7FF
00C
000
00D
7FE
7FE
7ED
061
000
7DC
7F2
720
7E5
01A
7DA
03A
7F9
7E8
7F6
7F7
7FF
7F3
002
00E
01E
010
00E
022
0D3
7F0
7C0
7E5
7F3
7F3
009
7FE
010
000
010
019
7E0
7D9
028
011
7DD
7F2
018
009
7BC
7DD
71F
73B
003
005
7A4
04B
7FD
001
7DF
7EA
007
787
014
7A4
045
7F6
003
7F7
7EE
7F6
000
7EE
019
7FA
003
7E6
004
002
0BC
7F3
049
012
000
012
7E7
04A
016
039
7F6
00C
013
7FB
010
7F0
7CD
009
7E5
018
011
7F4
00E
001
79B
7ED
7E1
7F3
7FD
7FA
003
7E3
7E5
7DF
00C
066
7FB
010
7EF
025
7F8
7E8
7F1
7F7
7F2
002
006
012
7F2
7E1
017
01B
00A
7E8
7C8
7E5
7DD
06B
7F5
7C6
00F
762
7F2
008
7D9
7B4
0E9
7FD
00B
001
7DE
7E9
7FB
7F2
019
005
7F7
0B3
7D9
003
013
002
7D2
7F3
019
00A
009
7F8
7EA
000
7E1
7E7
6C4
7B7
015
7DD
7F0
7EE
147
00E
7DD
000
7E7
019
7EB
020
7D9
017
7DE
00A
7F8
04F
7F6
73C
094
00B
009
002
090
7C9
7FE
00C
7D2
7DA
7ED
019
009
7F0
066
7F6
033
010
00F
7ED
7E8
7D2
01A
7BD
00B
7F6
7E0
7F5
7F4
7E5
03C
7F6
015
003
7DC
7E6
047
7E1
7F6
00F
009
7EA
7F3
7DE
010
7DD
02C
7EF
750
7E3
015
7E0
003
7C2
017
016
7FD
00B
7FC
01B
7EC
03E
008
000
7F0
00D
7FE
7E2
0A9
7ED
7FC
7D3
7FA
7E2
7E5
7D8
7F7
00B
7E6
0E0
028
7F3
019
7FD
00F
7FD
7FE
010
001
002
7CA
7FA
044
7EC
7CE
7E6
7E3
7F8
7F2
7EE
7D9
7E8
7FF
7DE
7E7
7E7
047
7D7
00A
000
745
009
03E
7E4
73A
7AA
7DE
003
7FB
037
7F2
7E1
7D0
7FB
7FF
7CB
7EE
7C4
072
7F9
7DF
012
7EA
7AD
003
01F
01A
7EA
7DD
011
7EE
7F8
08F
7E4
01B
7D3
7DE
001
7DC
076
7FF
005
00E
7FC
7F5
7E8
7F7
7E6
7B1
009
013
7F1
7ED
011
089
017
7D9
01C
7EF
7E1
7FE
7FE
7EA
7EE
7E0
7F7
7A5
018
7E5
7C9
012
0B3
7FF
7BC
7E7
023
7E6
7DD
017
784
7EF
016
7E7
019
7F6
7F3
775
014
7E8
733
7E7
7F9
7FC
001
00E
00E
7E2
7D7
7FC
019
7E7
7EC
7EC
00B
018
7E7
7E1
000
7F7
038
06C
00C
7F7
7F4
776
7FB
7F2
7FD
7F4
013
014
004
7FF
7F8
703
7BA
7E0
7FC
059
7E8
0CC
00E
7FC
765
7F0
004
7F5
76F
7DF
7F7
015
000
015
055
01A
760
79D
7E4
00A
017
7EA
777
7DA
7DB
7E2
7E3
00C
007
013
7F1
019
7EE
007
010
000
004
7D9
000
7E5
002
7DE
7D9
00E
006
7FE
7EF
7A2
7E1
7F0
7F4
00E
7DC
025
7EF
7D6
018
7E8
00D
039
7F8
7E6
7F6
7F9
003
7A9
7DD
7E0
7B7
7FF
00B
010
76A
018
001
012
7F7
7F7
7B2
00D
7B8
7ED
01B
015
017
020
7E9
00C
0AB
003
7D8
7D9
7ED
004
7F0
7E5
7F0
02A
7EC
7FE
006
7E0
003
007
7EE
7EF
019
018
739
000
00E
7DB
7F3
059
7E5
00A
7DB
7E3
7F9
011
7E7
7F2
7E7
7C3
7EC
7ED
018
7DF
00D
08E
7FE
0BA
7F6
7F0
7E0
02A
79A
7F1
7DC
010
011
7F6
79E
7E8
04D
738
016
7DC
7E3
7DD
007
013
005
7F0
003
026
016
7EC
013
764
7E5
7E9
000
7F8
00A
7F1
03A
7DF
783
008
7FC
7FA
7E4
7EF
7E8
7E5
006
016
01C
7E6
012
7EF
7F6
008
7FE
7F6
7F1
028
7EB
7FA
7F2
7D9
003
02F
047
7DF
0A4
7F4
74A
018
039
7E4
062
013
7E9
7DE
7E0
010
7C9
7EA
7FF
015
009
771
00E
7DC
010
006
7CF
7E4
774
00C
018
7FB
053
773
7E7
7F4
7EC
00A
014
00C
7E6
007
7F1
7C4
070
7A2
003
7E7
7F8
00D
7E8
7E9
7E0
7F6
005
7FF
7DE
00E
7DE
7D2
7F9
7F1
014
035
7F8
77E
00A
7BC
749
006
7DD
7DB
0B4
014
7E6
7F4
019
7EF
055
7F8
03D
789
7F1
7DD
017
7B9
7B7
000
7DE
7DF
7F8
7EE
01D
7FA
7E7
7F8
7C1
7C8
7F3
7E6
7E2
7F6
057
007
77D
022
7F5
7DC
017
01A
7DA
008
7E9
010
7FD
7E5
00D
7F6
003
006
00A
00A
7F0
031
7EE
7FA
7E1
00D
002
015
045
00C
7BE
7FD
7CE
00C
7EF
00B
014
7DD
00D
01C
75E
007
7FD
015
001
7E3
012
008
005
011
7A7
01F
7F2
7EC
03D
003
001
000
074
031
7EE
00D
7E9
7EA
7F7
7E8
7F8
7ED
7F6
7B9
074
03C
7D1
7E9
7E3
7C0
7E4
7F0
7D8
005
00A
00F
7EA
7D4
00F
076
084
018
008
000
7E8
02B
7F3
6F8
7D1
7DE
7E1
7D7
015
7E5
013
00C
022
7E0
758
001
7C0
003
7DD
017
012
7F1
7BB
003
7F7
7E7
003
7F5
7F2
004
01A
06C
7E8
080
7E1
013
7D7
7F3
045
002
7D8
009
008
007
7F0
7EF
7F8
7FE
7E8
7F3
004
01F
7EC
039
7F6
01D
7F5
7F9
00C
02F
7E6
7FF
7E8
7F4
007
7A2
7E4
7F9
7F3
014
7F0
7FF
070
7E8
775
7E3
7EF
7FF
07A
7E7
004
7E4
00C
7EB
00A
765
7FF
7DE
0B0
7FF
7E5
7F0
7C4
016
7E3
7FF
7FA
013
7E4
7E1
010
014
7E5
7E6
011
7FD
7E9
7DF
7FD
7EE
7FD
7CC
7F7
014
006
7F7
7F3
7E4
016
7D7
7EB
7F5
019
7D6
7EC
7FD
7F3
7D9
7F5
037
001
7FA
7F3
7DC
005
7F1
018
00D
011
013
7E9
014
7D8
010
7EF
00F
7F7
7FB
014
006
012
01A
005
005
7DE
7F9
7D9
7F5
005
7CA
7F6
7F1
7EA
01C
7E7
7E0
7F9
7E9
7E2
7E4
7EC
7FA
7E4
010
00C
7E4
01A
7F9
7F1
002
7EE
7EB
7F3
01B
7FA
00D
026
019
7DA
009
7F9
7E7
7F9
001
020
7EB
7FF
008
01E
012
7E8
006
7EC
014
01E
014
02C
7F5
7E1
014
011
7FD
013
7FD
001
7F8
014
7EA
7FD
009
7DB
7DD
006
007
7F7
014
7DB
012
00A
013
007
7F2
7E9
7E5
014
7F2
7C9
7F4
002
7E3
020
7F1
00E
7EC
7D4
7F2
005
7E6
7EF
014
017
7D4
014
009
7FF
7EF
7F7
049
00B
05B
033
00D
014
7EB
009
7FF
010
7F6
002
7E3
7D6
01A
048
00B
00B
7FB
7EA
010
7F5
00A
016
7D9
7DE
7E7
012
015
7EC
7D4
7F5
7F5
009
001
01A
008
007
7DB
7B9
7F2
006
7E4
7ED
7EB
7EE
7DD
015
7E8
006
01F
013
7E4
000
00F
7F3
00B
016
7F6
7E0
7FD
013
001
00D
039
000
003
024
7FB
026
017
7FB
7FB
7D6
7EE
000
011
01D
7F6
001
000
00B
7F6
00B
7E6
7F7
7E1
001
7FD
7EF
7E6
7D2
7F2
018
7E3
01C
7A1
010
7E9
7ED
7E0
002
017
7F4
01D
7DE
7FD
7FA
7FB
00D
7E9
7F8
76B
7DF
022
7F1
7F0
7F4
7F9
7EA
7DF
003
020
7DD
016
7E0
027
7DF
03C
7E9
791
042
7F3
7DC
00A
052
006
7FD
7DA
7FF
7E4
00E
7EA
026
7C0
7EE
009
7F0
7C1
785
7ED
011
7F5
7F6
7F4
7DF
006
7FF
037
7B4
7B2
7F1
006
017
7F7
002
7F8
79A
7F6
7E7
00A
016
7F9
7F6
02B
018
005
016
7D4
7EC
7D7
00F
7D0
7DC
7E2
7F8
7A8
7EB
001
7E5
7C3
7F7
0A6
067
7EE
75F
7E1
7BA
7E7
7B7
7FF
788
7D9
007
00E
076
017
006
7DB
011
7E4
004
036
7F4
00A
7F5
026
7D6
7E4
7E9
029
7F6
7DF
7FA
008
7F0
7E7
7FB
7E0
7DB
7E1
018
001
010
7E5
7EE
7EB
015
7FD
7E5
007
016
00D
00E
7DD
7E9
7E5
7E3
00D
006
7E2
016
7E1
017
7E5
7FC
7F6
010
02F
7FF
001
7EB
7FB
017
7ED
003
015
016
006
7FA
7EE
7EF
009
003
7E7
7DF
7F1
7F2
011
7F9
020
7FF
012
013
012
7F7
015
7FB
7F9
7EC
00D
7F3
7E4
01A
004
01B
00F
019
7FF
006
7E1
7EE
00A
7EC
7E8
7FE
7FB
7FA
01B
00D
7FF
017
00D
7F6
7FE
7F5
7D9
017
7F0
7E5
7FD
011
7D9
004
7ED
01F
7FF
7E7
7EE
7FE
00E
018
00E
018
7F6
7E2
7E3
7E2
7E1
7FD
004
7E6
7ED
7F2
017
003
7FA
7F5
7F7
7E9
00D
7BA
0C1
00A
00A
003
7E9
7E2
7FB
019
018
012
7D2
049
7B6
00E
7E3
7E8
7E4
001
003
7DA
015
7DE
7E8
00B
015
7F5
7A2
7F2
7FC
01C
0A9
7E3
7EE
7DF
7A9
788
009
7E6
7CA
023
00D
7EC
7F5
7E0
7F3
7B9
018
788
7DF
010
7FE
7F7
7B2
7ED
7DB
7E4
7F4
7FC
7F5
00B
7DA
007
08C
037
7D4
7EC
7F7
00D
7FB
7BC
013
00F
014
7FF
002
7F7
000
7F8
021
003
7F0
014
7FB
7F1
7ED
004
7FD
011
7F8
7E3
010
7F4
7F6
7F5
01D
7F9
054
069
7FA
7DC
019
7E5
00B
7C8
7FC
0C7
01C
00E
00B
03D
016
7F8
7E3
001
000
00C
0B0
7DB
01E
784
014
7EB
7F6
043
01B
7F2
7F0
7FF
782
7DE
7ED
008
7FF
7EE
7FF
008
7FD
7E5
7CA
009
07C
7EA
7D0
7F8
7E8
7FA
7F0
7F4
7E4
7DE
7EC
7E5
7E8
014
036
7C3
7E1
000
7FE
7DA
010
7DA
7FB
000
008
7DB
7DA
7F9
7F4
7F6
007
009
004
7D3
01A
0AD
08B
003
7E2
7E1
7DA
7C7
7F3
01B
7F7
7E5
7E5
020
7E1
7E8
055
7DE
03C
007
7E2
7E4
7FA
7F8
7D9
793
7F3
7E4
013
7EA
7E4
7DF
7E6
7F7
7DA
7EC
7F6
7EB
038
7E9
783
017
7E8
005
7E1
01E
7ED
7E4
7EB
017
7B6
00C
7ED
035
018
7E6
7F0
7B1
7EE
03F
7E1
7EA
000
07F
01A
7CF
002
7E0
7FE
002
72F
7FB
7EB
028
017
7E0
7F2
708
7DC
7DB
01A
7F4
033
7EB
7E2
7E3
7F8
7EC
7E4
7ED
00E
018
7E4
7FA
7FD
002
7E2
002
7FA
009
00F
7CC
01A
7FC
7ED
00C
7E7
7DF
7EB
7FB
7FF
7EF
004
7EE
031
7E6
01F
7B4
7EA
7F7
7FC
028
7EA
7D9
7EA
017
018
7CF
7EB
034
002
7F7
7F7
7F5
006
7FF
7E7
010
7F9
7FE
019
7E0
7EA
7EA
7ED
7FD
7F9
7E9
7DE
015
009
7F0
00C
7ED
007
015
003
7F7
7E6
7F5
002
7EA
7DE
7DA
01F
7F0
01F
001
00C
011
7F8
7EB
000
7F0
00B
00B
014
7FB
7F7
7DB
7E5
003
7E5
7C8
7F0
006
004
7F1
7DC
00D
7EA
7EB
019
7E5
7DF
7E2
017
7F3
7DB
7FA
7F5
7EA
017
7E0
000
7E2
011
003
012
050
7F9
7E1
7F1
001
7DC
7DD
7EC
7F8
7EB
016
7FB
042
076
7F5
7E0
016
76C
00C
007
008
012
7F3
7F7
7F8
7F0
012
703
05D
000
7FF
7DC
7E2
0E3
7DC
00E
078
7E6
007
7E0
7DE
7ED
008
7F0
001
7F7
791
7EF
75B
7C0
7F3
7DC
7E7
7E3
781
7EE
7E7
00A
7F2
7E2
00B
001
009
08B
015
01D
7FF
001
00A
00D
7A3
7EE
75C
015
7EE
7ED
002
006
7FC
7D6
7F7
011
015
7DB
7F7
7E2
7FA
7B6
004
7E4
7EA
7DD
7DF
7DE
7DD
7E1
7F4
02B
7F1
7DC
042
006
780
005
6E7
7DB
74F
00B
7E8
7DC
7F0
7E4
7DF
7F8
00E
7DA
009
7DF
7E6
002
08E
00B
7E0
7E7
7E0
017
7EE
004
024
742
01E
018
004
7FA
013
7D9
7FC
018
00A
7E4
0CC
7B6
002
7FC
7FD
08C
7F0
004
014
016
7F7
7D7
00C
7EC
017
74F
7E6
7ED
7F8
7B3
010
7F6
7D8
765
757
7F1
7EA
7F9
7F3
7E4
7E1
000
7F5
7E6
7DE
7FB
79D
785
016
7F4
7D9
7B8
7DB
7E1
7EC
028
7FE
000
00F
01D
7F1
7BA
00A
030
7E0
7F8
001
7FD
07C
00B
735
7E7
013
7E7
008
7ED
00B
7FC
7F0
7F4
7E9
001
7EA
03A
7DB
7D3
00D
7E9
015
013
01B
7E5
7D8
022
7D0
04C
034
010
7BD
7EE
72C
7F4
048
7E6
067
01F
7F0
00C
71C
015
7BE
7ED
7F8
7F3
7EF
7E4
000
00F
018
7FE
7E1
7F5
738
00D
7F3
7DB
7D0
003
7F0
7FB
7E6
007
7E5
012
7E9
7F5
7E1
7E2
7FD
7FA
012
7C6
018
00C
7DF
7F3
7ED
7FD
001
7E0
010
7E7
7EE
7F0
7D1
7F9
007
7EF
00A
020
7EC
00B
7E3
00A
7EC
7F0
7F3
00D
7EC
7F2
7F2
7F1
7D9
008
013
7DE
7E3
00D
7E3
7E0
7FB
015
7F3
7D2
7E3
7EC
7E0
7F3
7EF
7E4
7E9
003
00E
7F2
7FD
003
7D8
01A
781
7FB
7EB
7F0
7FE
7F2
7DA
002
01A
7DD
7EF
000
00B
011
004
7F3
00F
001
7F9
001
00D
016
7E6
015
7F7
06E
00B
002
084
013
7F0
7FB
010
7F9
00C
7E2
7FF
7F2
7EB
7FC
015
7FC
01C
7FB
7FA
7CF
7D8
7F1
00B
00D
016
011
7FC
014
7E0
7E6
7D0
014
7FB
019
7F9
7E5
006
006
7ED
014
006
023
7C0
7EA
7AC
7EA
7E3
011
017
008
014
00F
7E1
00D
007
018
7DF
771
7B2
7DF
7FB
7B4
001
031
7E4
085
00F
7DB
011
7F1
026
7F8
7FF
7E2
009
7E1
020
7E2
053
7A4
004
7E9
7ED
7C1
068
005
7E8
7F9
002
023
7E9
7DC
012
797
7E6
083
7E7
005
7FD
7E3
7F1
011
796
014
000
7DC
7CC
7F7
019
00F
7DA
013
7E4
00C
7E6
018
016
7D6
7F6
010
7FA
7F3
7E6
7E8
7E2
7E5
009
002
028
7FA
0B0
01B
764
011
7D4
7FF
7AE
017
7EA
017
7FD
01D
7EB
003
026
7F2
00A
77E
7E5
7EE
7BF
7F4
7DE
00D
7AF
7E2
7EB
7DF
00D
7DC
019
7DF
7E1
7DE
002
7DF
7E3
7F2
015
7EF
08F
02C
7E3
013
7D9
7EC
00B
7E0
7DF
7E4
025
015
00A
7E8
7E2
779
074
7E2
01A
03B
7FC
0CB
7E7
7F4
04B
00E
00D
7E6
797
002
004
7DF
024
7F7
061
00C
775
7AE
7EA
7F5
007
722
771
7E3
7F2
7E7
7EE
00C
00F
004
7F6
060
041
03D
7EB
7FA
7E4
7F6
7F7
7DC
06A
7E7
003
011
00D
7DB
00C
019
00F
7EC
7EF
7E5
7F4
006
00E
7D7
009
7E2
7DB
01F
7F4
7ED
7F1
00D
7DF
013
778
7FD
01B
7E9
7A7
7F7
7C9
00E
7DA
7E8
017
7DD
7E2
010
7EB
005
7E5
011
7F1
005
7F1
7E4
0BC
7F1
00C
7E5
7ED
7FD
7FB
005
015
01A
7FB
7F2
7DE
7EC
7DC
010
7F2
7DB
7E5
00A
014
009
7E3
001
015
006
7E2
006
7D8
007
00E
7E9
7F8
7DC
7DA
7FA
7F9
7E7
006
7E5
002
00F
7D7
010
012
00A
7EE
01A
7D6
005
7EC
010
017
7E5
01E
014
00C
7EB
012
7EF
006
015
013
01C
7E4
003
7FF
00D
7F3
7DA
7DD
7ED
018
7DF
01F
00C
7F8
7DE
01E
7DD
014
00B
004
7EF
7DD
002
7D8
006
7F9
016
7F2
7E0
7F3
011
013
7EE
7E4
7E4
7E4
7FB
002
7DC
7F1
7F0
006
7F7
7D8
7E7
02F
7ED
7E6
7DD
7FA
7F8
7D4
7F9
7EF
014
7E8
7FE
7DC
7FF
018
018
7D1
7E4
7F0
005
012
01E
000
00D
01E
7DE
7EF
7ED
04C
002
005
7F5
004
013
7EB
7DD
7F3
7F1
7DD
7C4
783
015
7F3
017
7F5
017
002
003
001
7F1
00D
7DD
010
005
001
7C8
7EA
010
001
780
00C
02C
00D
7F0
7AA
011
00C
7B5
7B7
7E3
7E6
7F6
7F1
003
78F
014
05B
7DD
7E0
7E2
013
79F
7B6
01A
7DF
007
00E
7E9
00C
7F6
7E1
005
015
01F
7DF
00C
7F6
7ED
7DD
7F7
714
7EA
7FE
7F1
00D
7F1
019
7A4
7E6
002
7F4
008
00F
00D
7DD
7EA
7F9
7EE
7E9
7E4
7EF
7EA
7E8
002
00F
7D4
7FE
014
094
7EE
7EB
7F2
7E4
015
066
7DE
7DB
7E4
7FE
7EA
7E6
7E8
00A
7FB
7F3
7B8
7FE
008
012
7F0
00C
7E9
772
7D4
019
7F1
09C
72F
7E5
013
014
7FF
7E3
7DB
008
7FB
010
7D6
028
00B
017
7E8
00D
00A
7F0
7E8
7E3
00A
7ED
7F1
011
7F2
00B
7EF
79A
7E5
003
7A7
7EA
01C
7EF
038
759
00B
7F0
018
06B
01C
016
7E0
7FE
7F2
09A
7E1
7E9
7AE
016
7F3
016
058
747
00E
7ED
00E
015
7E6
7F5
7DF
7E2
034
7BF
7BA
7F9
7E1
007
7DA
02B
7F4
7A0
7F4
7F6
7DB
002
7EF
7DB
7E4
7DC
7F7
7E4
7D8
018
7CA
7EE
7DC
01A
014
7F9
041
003
7F4
7E6
7FF
7D4
050
7F2
7DC
78B
005
015
7F8
7AD
00A
027
7E6
002
7F8
6A4
01D
7C4
7EA
7F5
00E
7E4
7E0
015
7EA
79D
7F9
017
016
038
7DD
7EC
010
7DA
70C
000
019
7DB
7EA
005
7E2
7F6
004
7E2
049
085
7F1
000
7D7
00D
0A1
010
00C
7D7
7FC
7EA
7F2
7E0
7F3
7E8
78E
01B
021
7FD
73B
7E1
73E
01A
7CA
7AF
00B
00F
7E0
7B7
7EF
7FB
019
016
7F5
04A
00A
7DD
7A4
7F5
7E1
003
071
012
7F2
006
7EF
7FB
7EE
7F4
7ED
7E6
008
7F2
011
01D
7DB
00F
008
034
7EC
7CF
017
7E3
7E8
7FB
7E0
01E
03E
7E2
7DF
004
7F0
005
7D9
01B
03D
7EE
00C
005
7B3
7E0
003
7DC
7DB
7D6
0BD
032
001
03F
7F4
7C6
7F6
04A
7EC
00D
7FF
7E4
7DA
70C
7F6
7FB
7FE
7FA
7F6
00B
7AD
7EF
7FC
00B
7FE
01D
00B
769
7F1
009
005
08C
7BB
7E3
004
7CC
7E7
7E5
019
7E1
7F2
7E1
7BB
036
049
7FC
7DD
7F1
77F
7E9
7FC
7F3
009
00D
001
010
7EF
7EA
7F1
02A
005
7F2
012
7FA
028
7E6
77A
7CC
7DF
7E8
7F7
010
000
010
000
7E9
01B
76F
00B
7CF
0A6
7FE
012
7E4
055
7C2
7EA
00C
001
7F8
7FF
008
01A
7FF
09F
7C8
7DC
7E5
01C
7FD
00C
7EC
001
0CC
00C
00C
7F6
01B
7F1
011
7FD
7E9
019
7FF
7D5
7DB
03F
7EF
7D2
7EF
7FC
7E4
7A8
001
7F6
000
7D7
01D
00D
795
7F5
021
7F2
0C8
010
7E6
7F8
000
003
7E3
7F0
7CF
004
7D3
009
7FD
7DB
7EA
79E
7DB
01C
7D4
7FA
7F0
013
7AC
005
7FD
7E3
046
011
7F9
004
7DD
7E1
006
004
7EE
7E4
7FC
7CC
071
048
7EC
7F4
7E4
045
7F5
012
7F8
7F7
7F7
7E0
7F0
7C4
7E5
7E1
0FA
7F5
7D9
022
7DF
0AD
7F2
728
03F
7F8
7E2
7C0
048
7E6
7F1
7F9
007
7ED
7B4
00F
7E1
7F1
7EA
016
7EF
77B
7DD
7EA
7EA
7BC
009
7FF
7E9
004
7FD
0A4
00A
035
007
00F
01C
7F4
029
006
7F4
023
004
7FE
01C
7F7
014
01E
009
00F
000
004
00B
007
7D9
008
7F0
7F9
004
05D
7FD
003
7F8
00E
7F5
7F7
75C
024
7C4
7F6
002
7E5
01C
016
776
7E4
7F4
019
7A7
7E2
011
011
00C
7E8
7FD
7CF
7F6
00E
087
7FE
7FB
00E
7F3
009
7E3
01A
0BC
042
7ED
7E2
006
7F5
005
00D
011
003
7EA
012
0F1
074
7F6
7EE
018
04E
7EE
7FE
006
7F5
001
7FD
007
7F4
009
7D8
043
7F8
7FC
7D3
7FF
02F
015
73C
084
016
7F7
7F3
7E9
00B
7E4
7CE
01B
007
7C3
7DC
78F
053
7FD
004
7DC
047
028
7FC
7F2
7BD
00C
021
7EB
00F
004
078
7CB
05C
000
7DF
7FC
7FE
056
002
037
7E7
004
7F3
7F7
010
7E7
034
7D9
009
01C
008
7FF
045
7F5
7EC
7E1
017
7EA
036
015
7EE
00B
021
006
7A5
043
7E6
07D
7FF
7EF
010
044
7E7
082
7E8
006
7DE
7BF
00E
007
017
00B
7EC
7F9
03F
7EB
7F8
7E2
7E8
7F5
009
73C
7CC
7EC
016
0E2
787
7FE
7EE
009
00C
7ED
7FE
017
7F5
7E7
7DE
7A8
058
7EF
7CF
7DB
7DE
7E3
7D7
7E6
7E3
7E0
7DF
7F1
7E8
7D9
03D
79B
00C
015
7DC
004
052
7F0
706
068
00E
004
013
085
7F2
016
7DC
7EC
006
053
7E9
012
00C
7E8
005
008
0D3
7CC
015
7F0
01E
015
000
7EE
7DE
7FE
0A1
7C4
7FE
012
7E1
010
7DD
7F8
014
7E3
7E6
7DF
018
7FF
7FE
001
7BB
7DD
7EF
011
7EA
017
00A
7EA
7D5
011
7F9
00C
030
010
7FA
7FF
7FD
7EF
04D
004
7DC
7FB
00E
7C5
018
765
7E7
7DF
015
014
005
052
7EC
7DF
7DF
002
00C
7E8
7FB
00D
7FE
7E5
023
7FC
7E9
7CF
018
011
7E5
02C
6D2
012
7D7
015
005
7F9
7F6
020
010
016
7BD
0B0
7D3
013
7ED
7F6
7D5
002
002
7CA
007
7FA
009
7F3
7F3
7F6
799
7A1
00E
7E7
7D5
7FB
041
7E3
7F4
755
015
7F8
7F6
0FB
7F3
7F2
7F1
003
7FD
0B4
00B
070
02E
7F2
7FE
014
7DC
7D4
7E6
7EA
019
7E6
01B
7F5
7FA
7E9
7D9
7CE
7DE
7CA
7FA
008
7FB
045
7E5
7D0
7FC
014
7E5
7F3
00C
007
7FE
7F6
00F
00E
7DF
011
797
7D8
042
7E2
026
00E
013
7EF
7F0
004
7FB
7F9
7EE
089
7EF
7AC
7F5
7A2
015
791
7DF
017
016
006
006
6EB
7FA
7F7
7FC
7F3
002
7E2
7A9
7DA
7F5
77F
00D
7E5
7FE
068
001
01F
00D
024
75C
007
7D4
7FD
7DE
003
7FC
7DF
00C
7E1
7F6
03C
011
7E5
7E0
019
793
7F9
7F3
005
008
7FE
7E0
019
7E1
009
753
79A
7DC
7EE
0AE
7EA
0BA
7DB
7A0
03A
7FA
00E
7D4
039
7FB
007
7CE
7F7
005
746
7E3
09F
0E1
019
7DE
7E0
0D3
7E9
007
7FD
7EA
7EA
011
015
7E1
00D
00A
7EE
008
000
00F
015
018
7A5
7E5
01C
7F6
7D7
7FE
00D
00E
7DB
794
7DA
013
7E7
011
7F4
034
7FE
791
7EC
01F
005
783
01C
7F0
7E3
00E
01E
7F2
05A
00A
01A
7DB
7FB
00F
7CD
7EF
064
7EC
005
017
7E7
016
7E7
7E2
010
001
7F7
7D2
7F7
7F5
038
7E3
7DB
7EA
7EC
7C9
004
001
7FD
7E2
7EB
7FA
7EF
00D
7EF
7E6
7F7
7FF
010
7FE
7F9
7DD
011
7C8
7F2
7BD
7F3
7F8
005
008
7FB
7E7
7E8
7ED
7F8
01A
7E7
7F6
016
03C
019
004
7F5
00D
7E0
007
010
7E6
00A
7F8
7F3
014
7E9
7FC
7A5
7ED
040
048
7EA
013
004
7D0
7EF
019
7F2
7C4
017
009
7F8
002
7F1
7C5
7D7
7DB
7F1
00E
7E4
013
7C9
7D9
7E9
002
7FE
00E
012
7F3
011
00B
7DA
00C
007
7F6
7E3
7E6
019
7E0
7EA
009
006
04D
015
7E5
7F7
00E
010
7E8
048
017
025
7EE
01F
7E7
7D0
016
00D
7E2
7E2
7FC
001
7F0
00B
7F2
01D
013
7F5
7B1
01A
009
7FA
7FD
7ED
00D
7B2
01D
7DE
018
7CB
00A
7E5
7CF
009
018
00C
7E5
00F
7F3
7F8
7C5
0B3
7E6
7F3
7D5
7E5
7BE
7E2
7E8
7E6
7DD
013
7DE
7F6
008
7F9
7E0
7B2
7E9
7E6
02E
7E1
05E
7E1
7B1
752
015
001
02A
042
7F5
7ED
7DB
7DC
006
01A
7E1
7B5
066
017
7E4
7E3
03F
7CE
7E2
7EF
7D3
7EC
015
7FF
7F0
013
00D
7F5
7D2
7E9
7FE
007
006
7DA
7F0
7E6
7EE
7EB
7F0
017
7F0
7DE
7D8
004
7DB
009
7EF
7F0
011
00F
7DE
7E2
7EB
015
7DD
7E2
015
01E
7FC
7E8
7C0
0E7
7FE
7A8
008
797
7FF
795
7DB
01A
00D
7F4
7DA
77F
7EF
016
00C
7F8
7E9
009
0AC
7FF
00A
002
7DD
000
7F3
056
7ED
7F6
7EC
091
7AC
00A
00C
7F8
7D9
7F8
7F2
7FC
01C
7F4
7DB
03A
072
000
7C3
002
7A0
7FC
7EF
7EB
7E8
7E4
00C
7DF
7DF
008
7F3
031
010
015
02E
7EF
7F6
7ED
780
081
7F3
00B
7ED
7D1
005
7D9
7EE
7E2
007
7C2
7DF
7AC
08C
7FF
010
7E1
7E0
7A7
7DC
7FC
7D9
7DC
00D
7E5
7EE
7DC
0B1
7B1
7FA
7D3
7EB
001
00B
025
009
07A
7F1
001
026
00F
019
019
7DB
7E1
7DC
7E1
7E0
7DF
053
014
7DC
001
7F3
00E
7A7
7DD
00E
013
00F
00B
018
7C3
011
7F1
017
074
7E7
007
00B
7D5
00B
00F
009
7CA
7FA
7CD
7E8
7EA
7E9
010
731
7D8
7FF
772
01B
007
7FA
7CA
7FB
7E2
7DD
003
026
00D
014
7EE
012
017
7F3
7EA
7F3
7F4
7DB
036
009
7C1
7F3
7E1
035
7F6
7EC
7F1
7FA
01A
7F2
7EB
010
015
023
7AC
7F6
000
7C1
001
03B
7E6
786
7B8
7FD
7F4
7F5
7CC
000
009
7EA
011
7DF
77A
7E0
7B6
03B
009
7F1
00E
779
7EA
7E1
001
7CE
013
7EB
7FA
7F4
001
031
7C2
00F
7D9
00B
007
00D
020
7E5
064
7EC
019
7D9
7FE
012
009
7D7
013
7E2
7DF
7FF
7E9
07E
7E6
7DF
7FF
7ED
015
025
7E1
7E0
7DC
7E4
7E9
01E
7DB
7E6
7E0
7F9
080
7EA
7BE
00E
058
00E
011
00A
013
7F3
7C2
000
7EA
002
7F4
7F3
7FA
7DF
749
7DD
7FB
7F8
7BA
006
004
7FD
767
004
7F8
7E2
01D
7F7
016
7EA
013
7E8
7DB
001
020
7B8
006
7E1
7EC
7E8
013
7F6
7F4
7E6
7E2
018
00D
7EE
013
049
7F7
007
7E5
790
7FF
07C
7FD
012
7DD
7E1
7F5
7F4
022
7E3
7E3
7E8
7FB
007
7C7
7E1
004
0A5
7D8
7ED
7F4
7FA
7AD
024
7D7
7DF
7F3
010
00E
7E3
7E7
7C2
7CA
7DD
7FF
7EB
010
019
052
00E
7E2
002
006
002
01A
005
008
7F8
7F0
012
7EA
008
015
057
7FE
7EE
011
7E9
014
022
7DB
000
010
7FB
7DA
7C7
063
7E6
002
7F6
7D4
005
015
7DF
010
7ED
7E1
7F6
080
7F2
011
7F3
7EF
7D9
006
7BE
7E6
7EE
721
002
7F0
012
00E
7E6
002
7E4
044
05C
7EB
7EB
7F3
016
00E
7E9
7F7
7E4
000
7C8
0AC
039
7E8
7D0
013
7C0
7DC
006
7E0
7E5
7D9
001
004
7DD
7DD
765
7BC
005
7FE
096
009
0FD
00B
7A5
02D
7FB
011
00B
7A4
7E6
7FF
7FD
7F5
014
7B7
00D
6DC
0EA
00F
017
006
0BE
002
01C
00F
7CE
001
011
012
7FD
00F
0C6
005
01D
01D
7E1
7FF
019
001
008
0A4
001
016
7E0
7D7
7E3
7DF
013
003
7EA
01F
7FC
7F6
03D
7E5
7B7
7E7
7F4
7E9
797
008
7FF
7D9
021
7E3
7B7
002
7E6
7F8
7FE
01E
00A
746
7E7
7B4
010
7FC
011
7CC
7F2
7E9
012
7FF
7F6
7FC
05B
7F1
7FA
74C
015
001
7E7
79F
7DF
7F0
7E3
03F
7F4
009
00E
012
002
00C
000
7FB
00A
019
7F9
05C
78A
7F3
7DA
00C
01F
7E9
7EA
7CF
009
7EF
7E2
015
7FA
7E6
06D
7C1
00F
7E4
786
7E9
091
7F2
7E1
79F
7F8
7EA
017
063
7F7
00C
7EB
7E9
7FE
7B4
7E2
7FA
0C1
7FF
7FF
7F7
7CB
00D
7FB
012
008
016
020
7F5
7E6
7F6
7D7
7AB
023
7FF
005
002
7DE
069
00A
7E7
7F0
005
003
7E8
7ED
7FE
7D8
00A
7E9
7F0
7DF
009
081
7D9
7FD
7E4
003
011
04C
7DB
007
019
7F1
7FD
7FE
7D6
7E3
7CE
7E3
070
7FE
7A7
008
770
009
7E8
7F1
010
00A
7D5
004
7ED
002
001
7DA
005
7F3
6E7
01D
00D
013
7D8
001
010
7E4
7C6
040
013
004
015
7EB
015
016
7EE
006
7F1
7D7
032
77A
7E8
7F4
017
02F
7F2
7FD
010
016
7F2
00F
011
7DB
018
7FB
7D2
007
019
7B8
7FF
0A7
018
79E
7EC
7FF
7E4
010
037
014
7E0
7FA
7DA
7E1
7E5
7EC
76B
0D6
01A
7EF
001
73C
79F
014
7E1
7D9
7DD
017
00A
7F6
00B
067
7A4
010
010
011
011
005
022
00E
7FB
7F0
7EE
014
7FC
01F
7F4
7D2
7DE
7DB
7DC
00D
7ED
03D
7DE
00F
7F8
7FC
7DF
7F7
7E4
006
01C
01F
7F1
7EB
7E3
017
7A1
7FA
0BB
7FC
773
002
021
7DA
7EA
7FC
065
014
7C5
7E0
01A
00A
7F7
7DA
013
017
6F7
008
000
7EF
7E0
7E9
7E8
7EA
01E
7CD
00D
7E4
7F2
7E7
7D8
016
7EE
01C
7F7
7C2
127
012
012
7C2
01B
7BD
7F8
002
7E7
006
000
7EC
7E4
7F9
7FF
7EA
7C6
014
003
7BE
001
7FA
7EC
79F
765
008
00D
028
0C6
7E1
005
7E1
7F8
7FA
06B
7D9
7ED
013
7ED
00C
7EB
010
796
7E5
7E5
7E8
016
7E1
01A
010
01A
7CF
7EB
7E6
00C
7E6
7FA
7EF
7FC
7FE
00D
00B
019
7FE
005
7F6
7EA
7E6
7FF
7FD
7DA
7E5
00E
7E9
009
7F5
7F3
001
015
020
7DD
7F1
000
7EE
013
784
07C
7E8
7E1
00E
032
7F1
765
7E2
7D2
001
7DF
001
788
7E7
7D9
7EE
017
00F
7E2
7AA
004
7EE
7E9
7E7
7DD
7D9
083
000
7F4
7E6
7A5
7D2
012
7E6
7DC
7F0
00B
7F5
005
009
7FF
7F7
78F
7AE
00D
7C6
7F6
01E
7EF
7E8
7D2
017
7F6
012
002
7FF
7E2
020
030
7F4
7DA
7C7
7DA
7C0
7EF
00D
7A8
013
7F1
7DB
790
014
7EC
00E
7F4
7DF
7D8
7F1
0B1
009
7FC
7E2
7D8
7D0
75A
010
7DF
7CA
010
7ED
7D8
7DB
006
7DB
7DA
089
7D7
7EC
7F8
7DD
7BC
7F1
7DF
017
7E6
7D8
004
7F7
7EF
7F8
011
005
00D
7E1
012
7B5
7DD
7BE
7F6
7D7
7F7
00F
7DE
001
7F1
7F5
7E1
004
066
00A
07B
7F2
034
7DB
788
7DE
094
7DB
7DD
7DD
7F7
01B
7ED
01A
7E5
7E4
00B
6E4
001
7F4
7EF
7F6
7D7
016
72E
7E8
7F5
7EA
04A
025
7ED
01F
7DA
00F
7F9
7D9
01C
01C
00B
7F6
06C
057
7F8
7F9
7EA
015
006
7EB
007
004
7FE
003
7FA
014
7E8
6F5
031
003
7EB
048
7F8
074
003
7F3
7E5
7E1
7FB
02D
028
01F
002
7F8
7F3
000
7D4
7F5
7D4
092
00F
7E1
7FF
056
7A5
013
008
7F5
020
000
002
00D
7EC
020
7FE
031
7FB
7E5
7F3
004
000
7DF
7C8
7E5
010
7F3
7EF
7E0
7EB
7FE
003
7F9
7E1
7F6
00A
79C
009
03B
7EA
7F0
015
021
7FF
003
7D5
02A
7D0
7ED
0BF
7D8
789
7FB
7E1
7DE
77E
00B
79C
7E6
7F3
008
7D0
7E9
7F3
7FC
011
7F2
7E4
7DC
7DC
00B
794
7EB
001
7E8
7CF
00C
7F1
012
00D
00D
018
7F6
7F1
7F9
7DC
014
007
002
7E6
025
054
789
7F3
7FC
01C
040
001
7FA
00A
7F2
7DB
7F3
011
01C
7F6
7FB
03C
004
015
7C5
00B
059
005
7DE
7E3
006
7E5
7FA
00B
7FC
01A
7DB
7F3
7ED
7A7
004
02D
010
013
7FB
7DC
7AD
01C
7FD
7E4
7E8
020
7FD
7ED
7FF
015
7D3
016
00F
01E
001
7E3
004
016
7F9
7C0
7F7
7EB
013
7F0
7DF
7ED
006
00F
00B
001
7F6
012
00C
7F2
7CB
00E
7FC
00F
04E
011
7F9
00A
7E0
003
05C
7B9
7DF
03C
017
7C6
006
032
017
7E9
7E2
7ED
7EC
7E8
016
7EF
7EF
008
7FC
001
00C
7EA
7E1
7E3
7F6
7E3
007
00A
018
7F3
010
043
7E0
7E0
7EA
7D3
7EF
001
7E8
7FD
7FE
7E7
7F0
094
051
7C2
7FF
01C
79E
7FE
7F3
01C
7EB
016
018
7E2
7FA
012
701
014
006
7ED
7CF
7D8
0D2
00D
7B3
790
00A
00A
00D
757
013
006
7FA
7E6
007
0B5
7E3
7A3
7E8
7F6
7FE
000
761
7A2
01B
7E1
7E1
7ED
014
018
015
019
032
00B
7DB
003
7FB
005
7FD
022
019
07B
00D
015
7F7
01F
005
7E5
7BE
006
00E
7DA
7F7
006
009
7D9
7FA
01D
008
7F6
01D
7E7
014
7D7
008
008
7BA
03C
017
7FC
7F2
013
7E0
7C2
7EB
09D
002
7E8
7DE
003
7FE
7E3
7EA
013
014
000
013
008
002
088
7FF
7F3
7FE
7D9
7DE
7ED
000
025
794
7FC
7E0
021
7EF
7F2
013
00A
013
7EB
7F3
01C
047
7E0
02C
7ED
7E1
7F9
017
7E6
016
00F
7F5
01A
7E0
00F
7E0
7D2
7E0
7F4
783
7EA
794
012
7D2
00E
7DF
7E2
7E1
03B
019
7DD
7E4
7FA
7DE
7F9
7E2
7C9
7E9
7E2
7FB
7EB
029
7E1
015
013
7EF
7E6
00F
007
7F0
7E7
7ED
7E8
011
7F5
009
016
7EC
019
010
7D8
7E8
7EE
015
7F2
7E5
7F0
003
7FF
7E0
7EC
7F5
7F0
7EF
004
7E2
7E2
7F6
011
026
7EE
7E6
019
7F4
00E
7CA
7FB
7E5
7F5
008
7E8
7EE
006
7FE
7CA
004
7F4
01A
7ED
004
7F8
7DA
7DA
011
016
7B3
7ED
7F6
7EC
006
004
016
015
7ED
7DF
7F2
043
02A
7EA
7FA
00C
006
7E8
7FF
7F2
7E8
014
7E7
001
005
01D
7E0
00A
7B7
7FB
7F8
7F3
7F8
00F
007
7E8
005
7EA
7BB
039
7F7
7EF
7A9
7FD
06A
7E2
7AD
02C
7FB
7F1
7FB
704
7FB
7EF
7E8
7F5
014
7E8
003
025
022
7EE
7FE
002
090
783
7F0
011
7E5
7FD
7F7
7FA
7F1
003
0CE
7E0
7F8
010
00A
7E3
7E5
7ED
7E9
02E
007
7FF
7FB
7EC
00C
001
007
014
007
011
7FA
00A
066
7FC
7CE
000
7FD
7ED
7D4
00E
004
7FA
7D6
7EF
030
779
004
78B
7F3
085
7E8
7FC
7E7
047
012
7E8
7EB
7A4
7DE
01C
7EC
7E1
7DD
7EE
7DD
00C
7F7
745
7FD
011
00A
777
00A
7E3
017
015
03E
015
009
7F8
7F9
015
7E4
7FC
7FE
017
7ED
010
784
7DB
7E9
012
02B
01A
00C
7E4
00F
7E5
7C6
000
001
006
041
7D8
7FF
009
795
7F3
7F3
7FE
7A8
764
01D
016
7F7
09B
009
7FF
006
7FD
7F9
753
004
7B3
027
7FF
7EA
008
7CF
787
7FF
01C
7F5
00D
00A
01A
7F8
7E9
7E8
7DA
01A
7CB
00F
7FB
011
055
004
015
011
7F9
7E1
003
7F7
7E0
00A
7FF
7F3
016
7F9
005
081
020
7DE
7FC
7F2
002
039
013
013
014
7D5
7F8
7A4
02D
7E0
7E0
01E
7FF
7E9
784
7E3
018
7FC
7E5
7E9
7C4
7E3
7F3
006
000
00E
008
79D
019
7F7
69C
7FF
7FB
7F2
7F7
003
7F2
00A
7C8
033
7EA
7DF
7FF
017
002
00E
7F7
008
7F9
015
7E9
015
7FA
7EA
7E8
00C
7E5
7F3
7D0
001
007
005
01F
008
017
78D
7E7
7DF
7E2
7D3
7E4
007
7E8
7E4
7F6
003
00F
7F0
7B2
7DF
7E6
7F3
026
7ED
00A
00B
023
7FE
00E
7F3
7E6
031
01A
7DC
7FA
7D1
020
7E7
003
010
003
7FD
7F7
004
7E5
7F9
7F9
01A
7F4
7EB
7CB
014
016
01F
019
012
7F4
7D1
7E7
7FA
7EE
7F1
7E9
7E2
7FE
7E0
7E8
7F3
008
002
7FE
01B
7FF
00D
7E5
7D0
008
7FA
7C4
7F2
00E
7F0
7E2
004
79D
7E9
018
7DB
080
7F6
7F8
7E8
7E8
7DF
7F7
7AB
009
001
01C
7FF
7DA
7E1
7FE
006
005
7F0
08D
787
002
7E5
00E
7FB
01C
7F6
7E9
00F
009
7FE
00A
02C
013
02F
014
084
7F4
005
7E7
7F6
7E6
7EE
002
7FD
015
7A5
7FD
7DA
7FC
7F0
7F8
7A4
7FE
7A8
7DD
014
7EA
7F1
7C8
7E9
7E5
7DC
020
7E7
011
7E3
737
7D4
7FF
7EE
7FF
03B
7DE
7DB
00C
00C
014
00A
7F5
01B
7F9
7BB
7CF
024
7FB
7EE
7D6
7F5
05C
7F2
752
00B
00D
7CA
7E4
7FC
01D
01B
020
01A
001
006
01E
79B
7FE
06A
7FB
7FE
7E5
017
7EC
7FC
7F9
7F9
7E3
040
04A
015
036
017
717
7E2
09B
7DF
01E
7E5
7E5
7E6
730
01A
7CD
7FB
016
7F8
7FE
74B
011
002
036
009
00C
005
7DA
016
007
7DC
02F
7B6
7FF
7EF
7DA
7FA
7DF
7F9
7DE
00D
009
01A
7F3
733
7F3
7EC
004
75B
7D6
000
7E6
019
006
7E7
7EF
7FD
014
047
7D2
007
00E
759
7E6
7A8
7FF
755
01D
006
7ED
00C
7D8
009
7FA
002
7F0
015
7AB
004
067
7CC
7E9
7E3
7F4
03A
0E7
007
00E
015
01D
7DC
009
7ED
014
763
7FD
7C3
7F4
005
7D6
7DC
7EA
010
74B
7E6
7ED
7FB
01C
013
7DB
002
013
7E1
01A
7D7
7FD
7A6
7ED
029
00E
7E9
01B
081
000
01E
7D7
7D4
7D7
779
026
7ED
0B7
013
789
009
02C
012
7F4
003
7E8
00D
01E
006
7EC
00A
00B
7FF
7DF
7B0
7FE
7E5
04D
00E
7E9
007
7A6
7EE
7E7
001
7EA
7DB
007
7F7
017
7E1
00C
00F
015
7DF
013
7F7
04A
04D
7E1
7F8
7E0
7FD
012
002
7EF
00D
7F3
7DB
00A
7F1
016
7FA
004
011
7FB
09B
007
068
7F5
79E
7BE
7E4
7F7
7EE
0E9
018
7E8
7E5
005
7F3
7EA
7F0
050
046
7DC
012
7EE
03C
006
7E6
001
7FC
7FB
004
7F6
7E4
008
7C9
7EC
7E2
7F7
7E5
002
7F3
7F6
7ED
05C
00A
01A
003
7F5
7E1
018
7F5
7FF
7E2
7F7
7E0
7EE
01A
7DA
020
003
00C
015
7F4
00A
7F3
7FE
00D
011
7AE
7F1
00D
027
7EE
7CD
7EB
7D3
003
77B
7F7
018
00F
023
006
7EA
00B
7EB
7EA
7EB
7F1
015
012
7A2
013
7FB
7F7
7C4
7F5
7FD
016
75A
017
00B
7E1
00C
7DE
010
7DE
7ED
00A
7E1
7D2
799
05A
7F4
7C0
00E
7CF
001
017
7F8
7EC
017
7E7
001
003
013
033
788
7FD
7F3
7D2
7EB
7E3
010
7DD
788
006
00F
01C
7A0
010
7F1
009
7F2
003
7B2
7EC
0D9
067
7DD
007
018
7AE
006
015
017
7BF
7FB
008
7FD
008
7E4
7F8
7B6
050
004
7F2
005
7E4
739
003
7B1
7E6
7EC
7FD
7D9
7F6
00D
022
009
012
7FE
01D
00C
00D
7EA
7C7
008
018
7F3
7DD
7F0
7FD
019
7FC
7F8
7A8
0CA
7F8
086
012
7B9
016
78A
003
070
7FB
003
7FC
04E
7DD
7AF
7EA
005
01A
003
747
7E1
01A
061
7EC
7DA
7E2
6EC
7FA
7F6
016
757
7EE
01A
7FD
7F5
011
007
013
000
001
009
7C4
7E3
001
7DE
7DC
7F6
01D
7E9
00A
7D8
00E
7FC
014
7F8
7F1
7DA
05F
7FD
00E
7D9
01B
7FA
789
011
040
766
015
00A
7DC
7EC
01A
009
7EF
7DB
7DC
76F
011
0C3
003
00D
7DE
7F1
77F
743
7D9
7FA
7CB
01A
004
7FA
7FA
7D8
7FE
04F
79E
7EF
000
7EB
013
051
7DA
77D
001
010
01B
015
7F9
016
7E6
01A
7EE
7FF
7E9
7E5
7E7
7F4
7E4
7F8
014
004
03D
000
00E
7DE
7C5
011
02D
7FB
7FB
06F
010
7D0
7F1
00B
7DB
045
006
016
7FB
014
7DD
7FD
7FF
002
00F
016
700
00D
7F0
7D4
7F6
7E1
017
711
006
003
005
02B
051
7E5
003
7FA
012
012
007
016
013
01F
7EB
0AE
7B5
7F2
00E
7DF
02D
7FE
7E0
002
011
7D9
00B
7E6
012
7FE
706
01A
7E1
00D
00B
003
02D
7FF
7BC
6EA
7F2
011
7D0
022
7F8
003
7E1
010
7DD
7B8
003
7EA
7A4
000
7E2
7F5
77B
78B
7E1
000
00E
011
7DD
7F7
7FE
7FF
78C
7E6
027
009
7F8
007
004
057
7F6
6D9
014
002
7EC
7FA
7E5
006
00A
001
00F
001
7FA
7DC
7CD
7EF
023
7F2
7E3
7F5
049
007
7DD
7EA
7EC
00C
7E7
09F
014
77F
018
7E7
7F7
7DC
7E9
027
020
016
7F8
06D
01A
7EF
7E4
7F9
7FA
004
792
015
7DD
051
009
7E9
7F2
74A
7D7
7FB
00B
7EB
7BF
01A
7E8
7EE
00D
00D
00D
017
010
7ED
7DC
7D9
7C2
006
7E6
7EA
00B
7F0
7F1
7CD
7E9
7FA
017
7F4
01A
00E
042
7F6
7E0
7EA
7E2
001
007
7F7
015
7DA
7E5
012
015
015
007
7E8
7F0
015
7E1
7D1
002
7F8
7E4
7DB
7FA
7E6
7F5
01D
7F9
7F2
020
00F
7DE
7FE
013
7F3
77F
7DE
009
7F8
007
016
009
7F7
7DE
005
7E1
00D
014
7EF
7F0
7E3
7E4
00B
00A
7FB
00B
7E8
7E7
013
010
00E
7F9
7FA
7FE
7F3
001
000
7FB
006
003
7FD
004
7C2
003
7AF
014
7FE
7E0
00B
7EB
7FE
018
7E2
00E
7EE
7FC
7E3
012
01B
00C
7DD
7E7
027
7F1
7E7
7E9
015
7E9
7E8
002
7FD
02E
7F3
7F5
7F9
01A
7F9
7E5
7E3
008
009
7CA
0BE
073
7C6
7C3
001
77A
7EC
01A
7F9
005
7E5
7EB
7E5
7D3
7E9
756
060
003
007
067
7D8
0E4
7FA
797
010
00D
00A
011
7B9
015
7FF
7FD
7EF
01A
7CB
001
7F7
7A6
018
7F3
7E9
7B0
787
7EB
018
7D7
016
7FB
019
001
7E7
022
7F4
001
013
7E0
000
009
7D4
7DE
76F
006
7DE
7F7
018
7CF
7FF
7C8
7E2
7D9
001
7E8
7F4
02E
019
7B7
004
7F0
000
055
7FA
00C
7D5
7DB
7D4
7FA
7F1
7E7
02B
00F
7FF
7F1
76C
7FA
7C0
7EE
006
7F3
05D
001
7C9
7F9
01C
7FD
007
04C
009
018
03F
01B
7C4
005
7A4
7F5
013
019
003
00B
004
7DE
01D
015
01A
019
014
7F6
7D9
009
7E9
7F1
7DB
7F4
7F4
018
7F1
7F1
7E3
7DB
7DB
7E2
7F9
7FC
7F1
7DD
007
7EB
004
7F4
00A
7EE
00E
7FC
7EC
011
017
008
7E0
7DC
7DB
7DA
7E2
000
7EF
001
7F0
7F5
011
015
009
004
01E
001
7FB
7F9
7F4
7FD
7DA
7F8
7DF
7F9
018
7EB
7ED
7F0
7DE
7F3
7E1
00F
7D1
00F
7F9
00F
004
7D8
016
7F4
7E9
009
7DD
7FB
015
01A
00C
000
012
7FF
7FB
00A
7F7
016
7DD
7DF
002
7F7
020
016
008
7FA
7EB
003
7E9
7DA
020
7FD
012
7E6
015
7E2
7F3
7FC
004
7E6
7D3
7F5
7F0
7DE
016
016
7FE
7FC
010
7F5
7E9
7DA
059
7BD
009
7F9
7EA
001
7EB
7DF
7EB
7F1
016
7BA
05E
7FC
7C4
7DB
002
02D
00F
018
7E1
010
00E
7F8
7F7
7E8
010
01E
7A7
014
01D
00B
7EE
0A7
7FD
729
77A
010
7FF
028
058
00B
7EC
7DD
01D
7ED
79F
7E0
77E
052
7DF
7E3
7EC
7B5
7DA
014
7FD
003
7F6
012
00D
7E3
7E8
014
7B6
039
003
001
7FA
7FA
09A
019
030
7DA
007
7F4
7F6
7F7
010
010
7EC
007
008
015
7F7
06B
7E1
7AE
024
7F7
000
044
00A
01A
7FF
00A
7D0
7FA
037
01C
7DA
7F2
0A7
01A
7BD
7FD
014
000
018
7F3
791
011
7CF
017
7F3
7F5
7F5
796
7DD
014
6BA
7F7
7F0
7F7
7F5
7CF
020
7F2
033
036
7E4
7E2
006
7E0
007
7E8
01A
006
010
7FB
084
025
000
7C2
7F7
02F
7E3
7F8
7F6
7ED
7FB
7F8
00A
7FC
7DC
7D6
02A
000
008
01F
7EE
02F
7E8
79A
7E7
7E0
000
012
024
7FB
7F1
7E0
7F3
00A
7BA
7FF
73E
020
7F9
011
7EF
05B
006
7EE
004
7C1
7DB
7D8
7F0
7EE
00D
018
007
7FD
7F9
7E6
7E7
00F
049
7F4
7D7
7F9
009
7EC
7DA
7E1
7EF
7E9
7EF
004
7FA
020
006
7E7
7FA
03A
01D
00C
7E5
037
001
7F0
7F8
00D
7F5
78D
094
7F5
7E0
7EA
038
7E6
7E1
00E
743
7EB
008
7F5
7D4
00C
7F2
7DC
7FC
7DB
7F5
748
7F1
016
7DF
7FC
7ED
7DE
005
017
7F3
7F9
07C
05B
7DA
014
7EE
7EA
014
00D
7FB
7DC
7E1
7EE
053
7F5
7FB
7D8
019
7C0
00B
005
7FC
7F6
017
014
014
004
7E1
78D
7F5
7DE
015
015
7F4
00F
7DD
75B
7D5
003
7DA
7FD
053
7F4
001
7DE
7F2
7EA
7FF
7E3
75E
7FA
7F4
7EC
00C
095
7D3
7DC
7FF
7E4
00B
7ED
7DD
7DE
7F8
061
017
01D
7E5
00D
00D
7DD
7FC
7DD
024
01D
7EC
002
015
010
001
003
7E3
018
7F0
00B
7EB
7D9
017
7F5
014
015
7DA
00E
7EF
00D
7F2
7FE
7DB
007
050
7F3
7C1
7E1
00E
7F2
00E
7F1
041
7FC
7DD
7E3
79D
004
016
7EE
7EB
7DA
7E6
048
7EC
013
7C2
7DE
7E1
001
7B1
7EB
7EC
016
78A
076
7FF
7F4
00E
00A
00C
7F4
7EB
7E1
008
008
108
036
7F3
7E6
7F7
7F9
7ED
7FE
7E0
00F
01A
7E0
7FA
7E6
00B
72D
013
7D6
018
7DB
018
120
7F4
7BE
03C
011
014
7FD
7C3
7EB
018
7F2
008
7F6
7EF
7F2
791
052
7EA
005
7DF
037
7CF
002
006
7D5
7EF
7E5
7ED
7E0
7FC
039
03B
012
7EC
7EC
7E0
019
7C7
7FD
067
00C
7F2
020
7F1
00C
7DF
036
00F
7DE
003
7D9
7F9
057
7EB
7C4
017
013
7E4
7E4
010
7F0
7F5
7E8
7E1
799
048
00B
7DA
7F6
091
003
7AE
010
77E
7FE
012
7F1
7E0
7E2
006
7E3
7FD
7F1
008
024
011
009
019
7FC
7EA
7E4
797
01F
7F4
7F4
796
02A
017
7E0
00D
010
7DC
010
002
7EF
7D9
7D0
021
086
7F4
7E2
017
012
7DD
7E0
7F5
7F0
018
7F7
7DE
016
7DC
7B1
00C
008
013
7BF
003
0B6
7F2
78E
78F
01B
7DD
01B
7DA
000
7EC
7E9
002
7E4
017
00B
014
11B
002
019
7F7
781
7E6
00D
00B
7E2
005
017
7F7
00E
016
7F5
02F
7DF
002
7EC
7E7
001
000
7F6
052
002
7F8
7E5
7F4
7F5
00C
7F3
01A
7EB
00C
000
00A
044
7E8
7B5
00A
007
7E4
022
007
7DE
009
7E6
015
778
03D
010
7CF
7E3
094
7E6
021
7E0
015
7EC
001
7EC
019
7E7
7D2
7EC
7F3
018
00A
7FF
7ED
015
7AF
7E5
7F3
01C
7C2
7EF
005
008
0A8
7C1
019
7F8
01D
7E4
011
00E
7E3
7E3
7EA
7EE
047
011
7FE
037
01C
733
7F5
009
7D9
7FB
00D
7F1
013
021
7E0
766
09B
7E0
002
03A
7E4
0C2
003
002
041
013
001
7B3
06F
01D
00E
7CA
01F
7EF
7DB
7E0
759
7CC
01C
011
7FA
7E2
7A0
7E1
00E
010
7E4
01B
7F5
00E
004
094
00A
00B
7FA
00D
7E4
006
008
7E9
03E
7DE
015
001
7F5
7E9
024
7FB
7FD
7EE
000
7EA
001
031
7FC
799
7ED
016
01F
7C7
011
7ED
7BE
7EC
7BF
042
7CB
008
7E4
7ED
065
7E2
69B
018
7C0
7FF
7EF
7ED
786
01B
7EA
7E2
7F6
011
7F2
012
7FE
019
023
7F6
7CE
7D8
7AB
7F2
7E7
7E5
02F
027
00D
7F5
7D9
7F7
7E5
7F9
7E0
00D
7FE
7F0
032
79E
7D6
7D3
7EF
041
7F9
7DF
007
010
011
016
7E7
01E
003
7D7
7C1
008
017
7D6
7E6
00B
008
7A9
7CB
00D
7E1
7ED
04C
011
7E9
010
010
7EB
79D
016
711
06C
7E0
7FB
7E1
00F
7F2
7F8
7FD
7DB
01F
00B
003
00A
00B
024
7D9
017
7EE
7D9
7F8
010
063
7EF
015
7E8
7DC
7D8
002
000
7EE
02F
00B
004
7FD
01E
017
049
014
7C6
003
002
7FA
7E2
00C
015
7F0
7E9
7DD
76E
010
00B
7DB
003
071
00E
7BE
018
006
7F7
7F3
7F9
79C
7F3
7F3
7E5
7E1
7FA
013
01D
7E0
00A
6B6
007
7F4
7DD
7F8
7E3
7F4
008
779
7AF
00A
013
014
7D9
00B
017
7EF
01B
015
00C
0C7
0AA
000
7DB
004
78B
7FF
7DA
009
7DB
7FA
7E5
00D
7DE
7F4
768
074
7F6
7FE
04A
00A
0BE
7F0
00D
73A
7DA
003
7D6
021
018
00F
7D9
7F7
010
7C1
7E9
702
7F1
7E7
7EB
00A
74F
017
7E4
013
009
7E2
017
003
005
010
002
7D7
057
7FA
7EF
015
000
7FB
7FC
7A7
017
012
008
7FE
7D6
01A
007
7F0
000
7E4
018
7DE
055
7E5
7DB
7F5
7F6
7E6
7B2
011
014
7F4
7EB
7F3
7F4
01A
7E5
7C8
7F0
043
00C
784
00E
751
7FF
01B
7E7
046
016
7F3
007
009
7FB
007
7E1
7F8
01A
089
00A
7CF
7EF
042
002
7EA
016
7E6
03F
7F6
7DB
019
7F1
001
7EF
7E0
011
7DD
7AF
7D4
7CA
7DC
7EF
7E7
7ED
008
7E0
7DF
7E1
007
00E
018
7FB
00E
007
7CB
7EA
7E4
7FC
007
024
005
035
004
7DA
019
7E6
021
005
016
027
7E3
01C
001
7FE
014
009
7DF
7EC
018
003
7FA
7EC
7E0
7E3
00B
7F7
7E6
7F2
7FC
7F3
012
7F4
7F4
7DF
015
000
003
7E7
7B4
7DB
017
016
7E9
006
7E2
7E2
7E7
018
7EF
7E2
7E6
7F2
00A
7EB
001
00D
7E9
01A
019
002
7F1
001
002
7FB
002
7E9
02D
7F0
01A
7F7
019
7E8
7E9
001
00B
005
019
004
00E
019
7DB
00A
00C
7C9
7EB
00D
7F9
7E6
7F0
002
7D1
014
019
7ED
783
045
00E
7FB
7EC
7F0
004
7E0
7E1
018
005
7E8
08C
0AC
007
006
007
7FD
001
00A
7D1
7F7
006
006
003
7BB
7FE
72B
7FB
7E0
7F5
021
001
10B
7EE
776
06A
7F4
002
7E6
7D1
019
7F1
7E4
7FC
005
774
7F3
6DD
08B
7E5
7EC
7ED
068
7E4
7E4
7DF
7DB
7F5
7F4
000
014
7F1
014
7E0
7E8
013
7DA
00A
006
7D5
002
024
019
7F5
018
003
7FF
7FF
7F3
7F8
016
7E6
00B
7F8
073
003
00A
006
00F
7F4
78B
00A
7E3
7C3
016
009
7C3
05C
7F2
7D0
7F8
0B6
7EB
794
7E6
780
7F9
7F7
001
029
7E6
009
005
7E4
7F1
7DD
03F
7FA
002
7BD
7EE
7E3
7F4
7BE
7FF
008
7FC
00C
0C1
002
7EC
7CF
7EF
7F3
7DC
7EE
7E8
7DC
7E2
033
032
012
7CA
00A
79D
002
7EC
7EB
7DE
7E6
001
7EA
7F9
7EF
6FC
006
7E7
7DB
002
01D
11D
00F
7C5
06E
7F7
7F2
000
7E2
01E
010
7D2
006
7EC
78D
016
72B
07C
7E1
7E3
00F
09D
790
7EE
002
7B2
00B
00E
015
015
7F3
061
7C3
00F
025
7F6
7DA
7F1
7AE
7FB
7FF
7DF
7DA
001
003
00C
7F4
02C
001
7EF
005
7E5
7F9
04B
7FC
7C0
7F6
00C
004
7D0
011
7E5
7C4
025
7F5
7A8
7C6
7F2
799
017
0F8
00E
70E
018
001
01B
7FB
000
080
7E6
7F5
7F6
7E7
7F1
7D6
037
012
7E7
777
00E
7FE
002
01F
7CA
7F8
010
121
06F
7F4
7DD
7F0
7FF
7EE
7FF
016
01C
7FB
7FA
06D
10F
7DF
7F1
7FE
01A
7E2
002
7EA
00E
7E1
7E8
7F4
01D
00F
035
061
7F6
017
7D3
7DE
7B6
018
73C
07B
011
006
7ED
034
7F4
7E9
7F5
016
013
7E7
7FC
73C
018
7E2
7F8
00B
0B8
034
00F
7F2
007
7EE
00C
00A
7F9
00B
0B8
7DB
071
01B
00F
7F2
008
01E
7D9
0CA
7F8
005
7E4
7E8
7ED
7ED
01D
015
7E3
018
7FD
013
00B
011
7D9
015
7FA
7F8
050
002
7F2
7C6
00B
7FB
7C0
053
008
069
010
769
00E
02B
008
0A4
7FE
7E9
007
781
016
003
7F3
7D7
7F2
7E5
015
005
7F3
73F
7FC
01C
015
768
7D8
7D9
004
011
7E8
7DC
009
7F6
008
7EA
016
7E4
7DA
7E4
7BC
05C
7EF
7F5
7FC
002
01E
7FE
00F
7C7
7FD
7DB
005
7F5
018
7F1
7E7
7E5
7DC
7EA
7FF
7F4
064
7FC
7C9
7EA
7DC
012
7EF
7FC
7ED
7ED
7FE
7E2
7F3
791
7DB
7B2
026
7F7
000
7DD
7B7
022
00E
7E1
007
7E7
7F4
7F7
007
7EC
00F
000
021
01B
7FC
01B
007
7EB
7E1
01D
003
7DD
7FC
00E
008
7E8
7FC
7F1
7EB
010
00D
7EA
00A
7DB
7FF
013
003
005
01D
7FC
7DA
7E1
01D
7F0
7F3
04A
7F6
7D1
7F0
7B6
017
7FE
012
7E7
002
7EE
009
03B
7DB
7DC
01A
7F2
015
7FD
7F9
017
7E3
7CB
007
017
7ED
060
7E2
00D
7E7
02C
741
7E7
7F3
7EA
7FC
010
7E9
7EA
7FF
00C
7FE
065
03B
7CC
7E1
019
7E0
021
7E4
00F
7EA
015
008
009
7E3
7E7
79A
0BB
7EA
7DD
7EF
7E0
126
00B
76E
02F
7FE
7F4
7DE
008
00D
7E2
7D1
00B
7F7
77C
008
011
0AE
014
017
7F9
058
777
7EB
009
7E1
013
7F1
7EC
008
017
0FC
7CF
018
00B
00B
7F8
7E4
7F0
7EF
024
010
7E8
7F6
00E
7ED
7EF
000
7FA
011
7EA
7DE
7E2
023
7F3
7BB
7E9
00B
7E8
7C4
006
003
7DD
7D9
006
042
7C3
019
7D9
012
002
7FF
73B
00E
79A
7F8
7FE
000
012
7E5
003
7FE
7FD
7E3
7EC
7EC
00D
001
048
018
7D6
010
7A2
7E7
7E0
7FD
7ED
7D3
7DA
000
020
7EF
004
00D
00D
7EE
7FF
7CD
00A
7D8
7E0
7F5
00E
762
7F2
00D
001
7EF
7E0
7E3
014
7BC
7FC
7A3
7CD
011
008
00D
7F3
05E
7F8
783
009
006
7E0
7EA
79D
00F
7E7
7FF
7D7
000
766
7E6
081
02E
7DC
016
7EB
06D
762
7E5
004
7BE
009
00D
7E4
7EB
7DA
7D4
7E8
034
7F1
7EF
7C8
7FD
76C
7DA
017
7F2
7E1
01B
7FA
00C
005
7C8
015
000
7F7
7D7
7F1
077
7F7
7BB
7FF
009
00A
7C6
7E6
007
000
025
7ED
02A
038
7FC
046
00B
7EA
7E7
7B8
006
095
010
7F8
002
7E8
7DC
03B
004
005
000
7E4
7A1
7EE
7F4
029
7DD
7DC
00A
7D7
7D9
007
012
7DF
794
7F0
7FC
006
00D
7E6
001
01A
001
008
021
028
070
7E7
7C1
7FC
06D
7FE
7E8
7E5
7EA
7F2
008
7F5
005
7F8
09E
78C
7DE
015
00B
024
74C
7E4
7F2
799
016
016
7DD
054
010
7EA
00B
7F0
7FB
033
000
00C
02B
7FE
007
7FD
05F
7DD
7FC
002
7C6
001
00A
7E4
7F6
7E7
7FC
7E3
09C
7FF
7F3
004
014
770
013
05B
01C
003
7DD
7FF
00F
000
7D3
7F7
7DB
7EC
7D7
7E2
001
7FF
7C2
7EF
7F2
7ED
054
005
7E2
01C
7FC
7ED
7F8
022
017
043
7E4
015
7E5
018
7F9
057
7E8
7F0
013
7CF
7EB
7DA
7F3
00A
01A
7F4
765
7F5
006
012
010
7D0
011
6B6
7FA
013
7E1
7A4
067
012
7F7
7F2
7EB
002
7EC
010
7EC
002
7F0
081
003
7E9
7D0
013
041
7F5
019
7F3
7F6
7F7
7FE
015
7EE
012
79E
7F5
7E8
01C
792
00B
074
7E4
058
6D4
016
00D
7FC
02B
018
016
7CC
026
7D8
733
011
75B
09C
009
01E
7FF
74E
7AF
00E
018
004
01A
7D2
7F9
014
7DE
7C8
7EB
043
018
007
7FC
014
041
7E2
7B6
002
7F0
7D2
7ED
7FA
7E8
004
7EA
7FB
7FD
00E
7DA
04B
020
7F1
01A
01C
00D
01E
7FC
009
7E0
7DA
7E7
7F4
7E9
7FD
79A
7F9
07E
7FB
074
00A
054
012
7E6
7E8
001
7F3
003
7F6
7D9
7E2
015
026
017
7FB
79F
7E0
016
7DE
7C5
7EA
00B
7E5
0B6
740
7ED
004
021
7F0
000
008
017
7FB
7E1
7F5
7A9
0B2
7E7
7DF
003
007
7D8
7FE
7DD
00F
008
7F9
7FA
7FD
00F
03D
7F3
7F3
7E7
7DB
7FC
00B
7EE
730
019
7EF
00D
00F
040
7DF
7DD
7F1
7FA
7F5
014
009
78F
797
001
7F4
7EC
0A9
793
010
7E9
001
7EE
010
7E3
7D8
007
7D7
017
020
7EA
018
7F1
006
055
7D9
7DE
7FB
7EE
01E
009
7EC
019
7E0
00E
010
7DF
00E
7F4
7E5
00E
7F7
01A
7F5
7E0
0C7
7F2
7F7
7F1
7ED
00D
7C0
001
7EF
7C6
7F4
750
7F6
793
013
7D5
7FF
7F5
008
058
01C
7FC
012
7F3
000
000
7F8
00A
7FB
7D4
7E3
7E1
002
021
7E4
7FA
00E
7F9
08C
016
003
01D
017
008
016
000
007
7E6
001
050
087
7FE
7FB
018
79C
7FE
01E
7CD
7D9
7DB
01E
7F0
7EF
7E5
073
010
7EE
7F2
7BA
7E1
7BE
7F2
72C
007
7E3
01A
001
061
009
002
7E0
017
016
05A
013
7AC
044
7DF
003
7F8
02D
7EA
01D
003
7D0
00F
012
7FE
7E0
7EA
06D
00D
7EC
002
00E
7FB
7E0
049
7F4
77F
003
00C
7DC
7FE
7D5
00B
7E1
009
011
014
7F7
011
7E7
7FA
008
7E2
011
004
029
7F5
7E8
7FC
7F3
018
7BE
012
7DD
791
002
017
009
77A
017
70B
011
013
7E6
08A
7E1
018
01D
013
7EC
7F1
049
7EE
01C
79D
01C
7C5
006
03D
025
00B
7FD
0B2
7D1
7F8
7F6
7F9
006
7F5
7DE
7E3
00B
7DF
7D1
7C7
079
007
00A
7E5
7EF
7FF
01E
7FC
7DC
7F4
009
7DF
003
001
018
7E2
7EC
019
04F
7F8
7F6
00C
740
01C
7F5
014
018
008
009
005
00D
00C
7F0
043
7E7
7A1
052
00C
019
00B
014
7D3
020
010
7F0
009
7EF
7F4
7EC
7F8
7EC
7CD
7D7
016
7F0
7FB
010
096
7F9
7DF
01C
7EE
01D
000
008
7DE
7FB
014
010
7E4
7FD
00E
017
7FF
7E6
7DD
016
010
7D1
7FF
7FC
003
7F0
7FA
7F1
7D8
7DA
023
7E6
002
7DA
791
7E4
7DC
7EC
7EF
7E9
008
000
009
7F5
7DC
7EA
7DE
014
7DD
7DE
010
7F3
7F2
7E0
7F5
007
7FE
7FA
054
005
7FD
7CF
7EA
7DF
7FE
014
015
015
019
7EC
033
7C3
7CF
7CA
7E0
005
023
006
7FB
7E1
004
7EC
7ED
7E6
005
030
7CD
7F9
009
788
7E6
08E
7DA
76D
7EA
023
011
7EA
7FD
7E5
00A
013
01A
019
7B1
012
7E2
0A8
7E4
00C
7EA
7E4
025
7EF
7E6
7B7
005
7EF
7F3
004
018
032
7D9
021
7F3
004
7E5
7F5
055
7FC
7ED
7F8
7F4
024
7EA
008
004
7E3
7F9
7DB
7F8
008
7D9
09D
011
79D
7F8
023
009
034
002
00A
7EB
004
7D3
7D2
7DD
7E4
7C5
011
079
7F8
790
007
7AA
7DF
7FF
7F5
01C
7FC
7C8
7E7
7F1
7FB
7E4
7FD
7E1
7EE
75F
7FB
7DC
012
7E3
7E3
7DC
7E5
0A3
7F8
7DC
013
004
013
7FF
7FA
010
7F3
7F3
7F3
079
057
009
7E5
006
096
005
008
006
7DF
004
01B
00B
77A
004
000
000
7E2
00B
010
00C
763
002
7BE
7EF
7FA
7E4
010
7B6
003
007
7CF
7E9
7F8
03F
009
7E7
044
005
015
7FA
02B
7D4
01A
7E7
7E3
01A
7EA
003
011
001
073
7A6
051
015
00F
7FE
007
010
7F3
099
015
7EA
003
7EF
016
7DE
7E0
7EF
010
011
01A
7E8
7DB
7FF
7EC
7E8
7E5
7FF
020
7F9
7F5
00C
7F0
006
7A5
790
7D8
7FA
7DF
7BD
7F7
058
015
07C
019
00D
011
7B6
7E6
7AE
7F5
7DE
019
7ED
7A1
009
015
7AB
7FF
7DA
7EA
709
00D
7F3
005
03D
005
7EF
7FD
7FB
7FB
7F7
7F4
00D
7EE
7F5
00C
060
063
7E5
7EC
7E3
7C9
7E8
7E1
00B
7E4
7E4
018
7E4
7BF
7E4
7BC
06E
003
7F9
7A9
7F7
07C
00A
77A
778
7FE
7F3
004
7C8
015
018
7E6
7F3
00A
7CC
7F3
019
037
00E
7EB
7FE
05D
7B6
006
7E9
7E6
013
00C
7FB
7FE
00B
067
7E3
7E8
004
018
004
00C
02B
7F3
06D
7FA
017
7E0
016
00E
014
7DB
7FD
7F0
7F9
7E8
7F0
009
7F8
785
7F2
019
008
7A5
7DD
7F5
01F
7F3
7E2
7DF
7A1
000
00C
7F3
047
00B
7A8
013
04D
7FF
7FB
015
018
7F0
01B
7E1
7DD
7FB
7DA
7B2
7F1
7F5
7FD
00C
7E9
013
7B1
00F
7ED
00E
028
7BD
7F5
00C
01B
7EB
7DF
7F3
7E0
007
005
7D4
7D4
077
7E9
007
009
796
7E1
7ED
7FC
7DE
019
00A
7E8
7B4
00B
005
77A
00A
002
00F
7DF
015
011
780
022
008
7E9
043
031
003
7DA
7E7
7F8
00E
7C7
01A
7E7
043
7E5
7E4
7F9
046
7FF
010
7F2
7E4
002
00F
013
015
015
061
7AB
015
007
7F9
7E3
7FA
7CC
7E8
775
7DF
00F
7F9
01B
7ED
7F4
7BC
009
7FF
7F5
7F8
7E2
05D
01A
7BB
00B
00F
7D9
000
7E9
00F
008
7D6
7F1
7FE
025
7EA
001
7E9
7BF
7D8
727
006
7D6
7E7
7E6
7F0
02C
7F3
7E5
7E5
00D
7EC
7EA
012
014
011
7C9
7D9
7E1
012
7FB
7E3
003
00B
7FA
0CA
00C
014
00C
7FF
7E9
7F7
7EE
7EE
7E3
7E9
085
77A
015
7FA
7F3
7BC
00E
7F3
003
010
7E9
7FA
014
006
7E8
795
7DF
7F1
7DE
063
7E6
7FA
7E3
7AD
7CF
7E8
009
7B9
03B
7E6
7FE
7CE
022
7E8
752
7F5
7AB
01D
7FD
7FA
00E
7F1
7FD
7DA
7EF
7C4
01A
7EC
7EE
7F6
016
09A
024
7BE
7E5
001
7F3
7FB
7E5
7E8
7EC
007
012
7FD
009
7EC
7F7
00F
7E4
7E9
7E5
7DC
7FC
771
7FF
02B
7E7
7E5
7FD
010
012
7F2
7EC
7EC
019
009
0AB
000
7B9
00A
755
000
795
008
050
7FB
7EB
7E9
041
7FC
00A
013
011
7E6
012
0A4
7E7
7FD
004
7F7
7EC
7DF
7F7
7E9
00A
7F9
7DA
7B2
7F7
7FA
00A
7FA
014
7DD
7EE
00A
004
008
7D1
027
7E6
7FF
7FE
027
7DB
7EB
7EA
7EA
7D9
7E7
00B
008
7F4
03A
7EF
014
006
02C
7F4
7AF
7FF
0A5
771
7FF
011
7B6
7F1
010
000
00D
003
008
7FC
7F3
0B4
060
7F6
7E2
011
7BC
7E3
7F7
009
7ED
007
00C
7E5
000
7FC
7F8
02A
043
7FD
009
7FA
7E0
7CA
018
7EC
019
003
7F6
00A
7EB
7E0
7EB
7FF
00F
009
7EE
01A
7F7
7F2
7EA
006
7E5
003
7E8
002
00F
00A
7EC
7E3
7EC
036
002
7F6
7DD
7C5
008
7A4
006
005
7E3
004
006
028
7DD
7DD
013
7ED
7DF
7DB
6EC
018
00E
033
7E4
7EE
7E6
6B9
7FC
016
008
7D5
7DE
001
023
010
004
7F2
7E9
001
7E7
7DD
7C5
70A
0AD
7BA
7F7
7E2
052
7DC
7F0
7DA
010
7DF
01B
7E8
015
7F9
7C3
020
018
7FC
777
00F
005
001
08A
013
007
7F0
004
777
7F2
7EB
7E6
001
7D0
00B
012
06A
778
004
7EF
7FA
7FC
003
7DD
00B
7F1
7E1
013
00A
005
7EC
7F0
7B4
7DA
7FE
7FD
7DC
018
011
7F2
74F
7F9
7E1
7E0
00D
7F5
00A
798
7E5
7F0
00D
7F2
7EB
7DF
7E0
7D1
7E4
000
7F8
01A
004
7F8
000
7D5
012
03B
027
00D
7F7
7E9
771
7F9
7AF
012
01D
7DB
00D
7FC
07A
7F1
7C1
00D
7E6
00D
00F
7A8
7E3
7E7
7EF
7FC
7E0
011
74D
7CB
001
7EB
07C
7EF
7E2
7E1
00D
7FD
7DC
010
7D9
001
00C
007
087
033
7F0
7C8
7E6
762
7F6
00F
7F8
010
019
014
7FC
7AB
7F7
75B
046
7EA
001
05C
002
0F2
001
75F
08B
009
001
7BF
776
7E2
7EC
008
00B
7D9
756
000
782
73B
002
7F6
7E0
7D3
79F
009
016
7BE
002
7E2
7DC
014
011
039
028
04E
7DB
015
005
7F3
77D
7EA
788
7E7
7DF
7E0
01D
7F0
00C
7D7
7ED
00A
7E1
00C
7FD
03B
7E6
7B6
7DA
7D6
7F6
77F
7F2
011
7E9
7EA
7EB
7F1
026
7DC
037
7F3
7F7
007
723
014
7AE
00B
014
00A
095
7E5
011
7EA
005
7FB
7D9
00C
7FD
007
030
00E
7F2
01A
7CE
7F4
001
7DC
061
7B8
7DC
7E6
7D0
7FB
7DE
7F4
7D9
7DF
002
7F2
00B
7D8
7E7
7DA
01E
794
001
7EA
7F3
002
000
7F3
7F2
7BA
002
7B5
7BB
01B
00C
04E
7EA
063
008
00B
02A
7F9
011
7BF
7D8
7EA
017
7F8
00D
7FE
775
7DA
0C8
04E
00C
012
7F3
0A6
781
7EB
013
7FA
7F8
005
7D9
012
017
00C
004
775
7C1
7DC
7CF
7D9
76B
00D
02A
7FA
00D
7E2
00C
018
00E
7B2
7F7
7FC
7DE
7E2
7DE
045
018
7DE
003
7F5
018
7B0
7E7
7FC
028
043
7E1
045
07B
7F2
001
7E7
7F4
011
71A
7EE
044
00A
7E1
7F9
03B
014
7FD
012
00B
00C
7FC
7CD
7DF
7F1
06B
7EA
7D7
01A
7E0
7F0
7EE
7E4
736
02D
7F0
7D9
7F8
7ED
009
015
004
024
7F4
7D2
0C0
01C
006
7D4
020
005
7EF
00D
024
00B
7D9
7E9
7E8
7E8
7EF
6EA
7DA
7E5
001
7E9
011
101
013
7E6
015
7EF
008
7E0
795
000
003
7F6
003
7DA
787
7EF
76C
09F
00B
7E3
016
051
7AC
006
7F0
7E2
7F5
000
009
7D9
7F9
021
7C2
7DB
01D
7FF
003
7E8
7BB
002
04D
7F8
7FC
7F6
7E9
003
7DF
03C
006
7FD
7E8
7F4
7E5
020
014
7A1
7D8
024
7E7
79D
007
7F8
7EE
012
7D5
002
02B
7EB
7D0
00C
09A
7E9
704
7DD
7A4
00A
019
7ED
024
007
003
7E9
7F7
7FA
7D7
06F
7F8
7DF
7F2
005
016
7FC
7BE
019
7F1
7DD
017
00F
001
019
7FA
7EB
00B
7F9
7FF
008
7FC
01C
024
7E5
7EB
003
012
006
7DB
7F3
7D2
00E
7F2
7F2
7FD
7DA
7E0
7E4
7E6
001
7F8
000
7F6
008
012
7F3
011
7DF
00C
009
7F4
7F7
014
008
001
7F1
7F4
7E7
028
00F
7FB
7E5
015
002
01E
7F3
7E3
01C
7FC
7EB
018
7FA
7F8
7F4
012
7F9
7F9
7DB
01D
00E
7DE
003
7F0
7F1
003
016
7EA
00A
7EE
7EF
00F
00C
7FA
01F
008
01C
7E6
012
7F5
7E7
012
000
7FA
00A
7EA
012
7E4
00C
7FC
7F1
00E
005
000
7D9
011
01A
7DC
006
7ED
7F6
006
017
01A
7DF
7F4
7F8
020
009
7F7
011
7E6
007
7F9
006
00C
00A
019
7FB
004
006
7E1
7F5
7F6
001
016
7EE
7D8
7F8
7EF
00B
7F1
7EF
7EE
7EC
7EF
7EC
018
00B
7D5
7E5
7FB
003
012
007
015
7C9
7F4
7F8
01A
7EA
7F6
7C9
015
7C9
009
00E
7E4
7F5
007
7EA
7DD
00D
7F3
017
7B6
7FD
003
7FA
7DA
7F5
7E7
010
7DC
7F2
7E8
7E8
016
7DF
7E9
008
7DD
7FC
7E8
00B
7E0
01A
00D
002
7EF
7E4
7E0
010
7E0
002
011
01B
00B
7F3
00E
005
7FC
7F8
7FF
7E2
7E0
013
003
01E
7F6
00C
005
7E1
7CF
010
00B
7F4
041
023
009
017
7C8
7FB
01B
00E
7D3
7DE
013
018
022
7FF
7E0
008
002
7F5
022
7FE
7EF
7E6
046
01A
00D
7DE
7FB
007
003
7E9
084
77F
7DB
7E6
7EB
003
018
009
00C
7FF
016
7E0
7C2
031
7EA
7D0
7EF
7AC
7E6
008
7FE
7ED
011
002
7ED
7CC
7ED
05D
7AF
7F6
004
02D
008
047
7F9
797
0C0
012
7E9
00B
7E7
00B
7EE
7E4
000
012
7F9
004
037
7B5
007
014
7F9
009
00A
022
01A
7F4
7ED
01B
009
7FF
7F2
04F
7D9
7C9
7FD
7EA
7DB
7F3
013
004
7AC
7E2
7DE
01F
7E2
7FA
005
7C0
7EB
7E4
004
016
016
04A
7F3
7E8
000
7FC
7F7
037
7F9
007
7FC
7F0
006
059
00F
7D9
027
004
7B5
7EE
73D
7EC
76B
008
7E3
011
043
7E3
7FF
012
7F3
004
00B
032
7FA
7DD
7D2
7E0
003
7EA
046
7EE
012
7EE
048
015
012
001
7F2
010
01A
00C
7F2
004
7E0
7E1
092
034
012
7C5
00F
7C2
00B
7F1
7FC
005
002
7FB
011
7DE
7ED
77E
0A8
008
017
7F1
7E4
0EC
7E8
7DE
06D
7DB
7E7
016
7B1
009
012
7D4
01D
7FD
7B1
7E7
767
094
00F
00F
7D7
064
7EA
7FF
005
7E5
7F6
00E
7F4
017
010
08D
7F1
7E1
7E9
017
011
7FC
014
00A
03E
005
7EB
006
7ED
004
013
005
01A
7EA
7F2
00F
7DD
02F
7F2
784
00D
024
002
7B1
005
7FF
7E5
7FF
7E9
06A
7B3
7E7
7CF
7FF
04D
016
71C
7E8
78C
7F3
008
7F5
7B8
011
000
7FF
7E9
7DD
002
02C
7F2
012
7B3
7FC
7F5
015
7B1
01A
009
009
0EF
0A4
006
7F9
004
7F3
007
7EA
012
01C
7E6
7D3
08A
0D5
7E5
7C7
7DD
038
001
7E2
000
7FE
00E
7F3
7F4
7F8
7EC
7ED
01C
007
7F4
7FF
006
7CB
7DA
71C
044
008
012
7C3
7CA
7F8
00F
7D2
015
011
02C
7E9
6FA
037
00E
7DC
7DF
0FE
01F
7F4
009
7DE
00A
021
7DF
7DA
7E5
0BF
026
06D
7FD
006
00A
00F
095
7F4
0C7
7FD
016
002
7FB
7EE
017
01E
010
7E4
003
009
7F7
03D
015
7C5
7E1
01E
7DA
006
7F7
00E
7FD
016
7E3
7C1
020
01A
067
7EA
7EC
7F2
7EC
7F9
0C7
7F4
7F5
7E1
7CF
7D9
001
7F4
001
017
7D8
029
003
01B
787
017
7F7
00D
720
7F5
011
00B
02A
009
00D
7EE
023
00B
7E0
016
002
01B
00C
7F5
07F
78B
7F8
016
7ED
77A
006
7FC
7CB
7F3
7EF
7E8
003
7E6
004
79E
7EC
010
7F7
77C
7E0
713
7D9
74E
7FA
7E5
021
7FF
7AB
7E1
003
7EC
7E2
009
7B7
00E
7D2
762
7EC
7FD
7EF
019
7E0
01A
7FE
7D6
7EE
7DB
7E9
019
7ED
7E9
7D8
7F5
016
009
7E3
7F4
071
7E5
6DE
010
7D7
7FD
7FD
01D
7F7
004
7E1
013
019
7D9
7EB
7C8
7E6
063
010
7F7
00D
083
01C
7EE
002
7E7
007
7B7
002
006
7D9
7F6
791
7E4
003
019
015
007
001
015
03A
7F1
7EB
002
7F7
7E9
7ED
7CE
7F2
7F5
043
012
7C5
7E7
790
004
7F0
000
7E8
054
006
7E1
012
7D9
004
009
011
003
00B
7DA
70D
7F6
7F2
7BB
7E7
7EC
7E4
7D8
7DC
7DA
7EA
00B
010
7F6
7FF
7D6
7F6
7EF
7F5
794
7FE
029
002
04E
022
00A
006
7E3
70A
002
7EB
016
017
012
79A
008
095
77A
007
7F1
7FD
7AD
738
7EC
7F3
7F6
013
7E2
004
00C
00D
7F5
010
00B
7E0
7EC
008
7F1
7CF
011
770
001
00C
004
7D8
7C1
004
7B7
7F7
7E6
7F3
7DB
008
7CD
005
7E3
006
00B
7E3
003
014
7EC
7FB
7DE
7E6
7F8
004
7E2
7CF
012
74A
7D9
7CD
002
0E2
7DE
7EE
7EB
050
7E7
7B7
7E3
7F9
7D9
7F1
78E
7FF
7ED
009
018
7EC
7DA
79C
7F3
012
7E9
01B
004
7FD
7EF
007
7E8
7EE
7ED
005
7EE
01A
000
7D7
00F
7FE
7E2
003
7DF
7EA
7F7
7D6
7FF
017
7FB
007
013
006
024
7DF
017
7F3
7EF
7DB
017
7DE
004
76F
008
015
018
014
7ED
016
7FD
7DE
00E
7DA
7FA
01E
7A9
7F4
7FB
00A
05E
7A4
00D
7EF
7C5
017
7F8
7D9
019
002
006
001
7EA
015
002
7F6
7F3
022
005
793
7E3
005
021
7E4
7F8
7F5
008
00D
00E
012
00E
006
029
012
7E2
7F4
002
7F7
000
7F2
7E8
7EF
005
005
7C2
7DF
01A
7BE
7F9
78B
00C
7B0
7F1
00B
7E1
012
7EF
7E5
01F
7DA
7DF
01F
7F5
7EB
055
7E1
7EC
73C
7E0
005
011
02C
024
00C
7E1
050
7A8
005
7D9
014
7E6
7D9
00E
006
7F2
018
7F7
7DA
089
7F4
7D9
018
758
017
01C
7E9
7E2
7FF
016
014
7CD
7F1
791
7B2
7F9
00F
7E7
7EB
03B
7FB
7DC
046
019
7E5
022
074
7E9
7DD
7C5
002
7E4
005
7E6
74E
056
016
012
7E4
030
7E7
022
7DC
7B1
013
00F
010
004
00F
089
7AD
7E6
7CE
7F4
7FB
004
015
7E6
054
007
7E2
009
7E5
7E1
010
7E3
006
7E4
01A
7D0
7FB
078
7FA
7BC
7DC
7F9
00C
798
003
00F
7FF
7FB
7DC
06D
005
004
059
013
7E2
017
72C
016
7FF
005
7FB
010
000
7EF
00D
7F9
008
011
7E2
7C5
004
7EC
73F
7E5
7E9
7EE
016
00C
018
019
7E3
0B6
7F3
00B
7F1
7DA
7F4
7E7
010
017
7E7
00C
069
06A
7EF
012
012
019
7F9
7FE
7F3
003
006
7EA
7EC
7AE
000
7F9
034
7EA
7F7
015
017
064
7DF
78D
0C0
00E
7DA
7A5
033
009
006
7F1
7F6
7EF
798
7F6
7CA
055
002
7DB
7E0
04C
7A9
7F2
00B
7DB
01A
7F2
7FD
018
7FF
7FE
012
024
017
012
7FA
019
03C
7FC
7C9
7EE
007
004
7DB
018
00B
7F5
01A
008
002
003
7DD
7FF
7F4
026
7FC
7E0
7E0
016
015
7D9
7EC
7ED
015
7B6
7D0
7DB
7B9
00C
015
7D9
7FF
7EE
75A
7EE
00A
008
7FD
002
7EA
006
01A
012
7FD
7E1
7EB
006
029
7E7
7EE
008
774
7FC
7F8
7E2
059
759
001
7E5
003
018
01C
006
00A
7EC
7EF
016
00F
057
011
7E9
014
021
7FF
7F0
010
7E7
7DB
7E3
01B
7FD
7E3
793
768
7E3
7F2
005
011
6EF
7ED
78B
00E
00C
7E1
7D4
795
004
013
00A
019
7E1
05E
7F4
7C2
7DE
00D
003
00F
073
057
7F0
007
7DB
000
7EC
007
009
7FF
01B
7E4
026
7EC
007
006
7E6
7F0
016
76E
7E2
7E1
7F0
7EF
7E5
00E
007
00C
7FC
7FA
028
7DD
014
7F2
040
7EC
01B
017
00D
000
023
7F7
00E
7DB
09C
7C5
7F0
7C9
7DF
77D
7E4
011
019
7FE
7E2
00C
015
769
012
7EA
7F0
7DC
7FE
7E0
77A
012
7E6
084
000
009
7F7
740
7F0
7ED
7FC
7CB
014
7FA
7E3
7FA
7F5
00D
7FC
7DD
007
00A
7DF
755
05B
7E6
7E8
00E
017
7E7
7F7
7E2
7F2
7FE
7F6
007
01A
000
7CE
01D
00F
7ED
778
7E8
7E6
7FC
042
005
7EB
7EC
7E4
75D
00F
7F3
7F7
004
7FF
05F
011
02F
7C9
7EE
013
7E7
7D9
7EE
00E
7E3
7E7
00A
7FF
01A
7FC
00C
7B7
017
7FB
015
007
7F2
7FD
7EB
003
77D
7E3
7DE
01C
7E7
00C
7EF
03E
7FA
7E7
7F4
7F4
013
7DD
7E3
7FB
000
7FB
7DD
047
7FD
7FA
7DC
7C7
00B
7CE
044
7EF
00F
00C
77F
7E2
7F8
005
024
7FF
01D
7E7
027
7F0
7C5
00A
000
7ED
001
01C
016
7E3
7EB
7FA
7F2
007
7D4
002
7EF
7DF
04D
081
7F6
7F0
7E7
010
014
7E0
7F0
00E
009
7BE
01A
0FE
7AC
7F6
00F
019
7EE
7F8
7EA
7DB
019
7E1
7FF
73B
7F1
01F
080
7FA
7DF
7A2
008
7E1
7D9
7A6
020
7F8
7F0
7D8
79D
7FD
011
7E9
7FA
009
75D
7E7
06C
7BD
000
018
7C8
038
01E
006
7FC
7C3
019
7F0
7D8
7F8
013
032
7F9
035
7D0
019
004
002
043
00B
75E
7FF
7E6
7E6
7F5
006
7EC
7ED
7EC
7E3
007
7FD
7F9
77A
007
7D6
010
01A
00D
025
7DE
7E0
7FC
028
7FF
778
7F3
010
782
01C
7BF
7F7
7EB
002
7C9
7F2
01B
7E3
097
7DA
022
008
019
00D
012
7A4
00A
00E
7F8
01E
7C7
01C
75E
013
7DD
004
7C5
010
000
01B
7E9
00C
007
009
00C
004
00E
7CA
095
7D5
7E9
7F6
010
027
7FC
014
7D6
003
7F5
7F8
7F5
7FF
7E7
025
7F3
7F4
7DE
7F5
017
01F
7FC
7CD
7CD
7ED
7E8
7F2
7D2
7E5
7DF
7D8
7F2
01D
7F2
009
7B2
037
00C
7E7
7FE
090
79D
014
008
7EC
7E1
7F5
7EF
7E0
7E8
7FE
7E9
7F3
7F7
7EF
00E
019
7D2
7E9
7E0
7F8
001
00F
00B
7F1
7E5
7BB
7F4
002
00D
00B
016
7B6
012
02E
01D
7F6
7E9
7FB
007
7FF
008
00C
7F5
764
081
7E7
7BE
00D
7F1
00E
79B
7EA
7F6
7F0
011
017
7AC
010
00A
7D9
7DB
00F
014
01B
7F6
7FF
7F6
01C
7F2
7FB
034
7FA
7E0
00D
031
004
010
7D3
7FD
006
7FA
008
00E
01E
018
7E0
08E
7F1
007
00B
7F4
7AC
011
7E3
7FC
7DB
7DA
7F9
7D8
7CF
7F4
001
7AD
7DE
7E2
7FE
7E1
03C
7E8
760
7BB
00B
7EB
028
090
009
00F
7FC
01B
7F0
03B
017
004
004
01A
01A
011
7AF
00F
7E1
001
7DA
015
021
7EC
7E3
001
0D1
007
7B4
017
019
01A
7FD
044
7E2
789
7F8
7E2
005
002
00C
00A
7DB
00D
003
00A
7FD
7DB
034
7F6
013
009
017
7E0
05E
00A
7FE
020
7ED
7E1
7DD
021
7FF
78E
7E2
7BB
010
733
01A
773
008
019
001
7E4
013
7D7
004
006
7F2
7DC
03F
00D
7DE
00C
7F5
7EC
7E1
7EA
7F4
7DF
7F7
773
7BF
7E3
01C
00F
006
00C
001
7F4
7E7
7D9
7FC
09F
040
7F0
008
7ED
7D8
7DE
7F5
7D7
017
7FA
7DE
7E6
7F0
7FE
7E8
034
017
013
7E2
008
169
7EF
777
039
004
7FF
7C5
06A
7F2
7F6
7F0
7EB
00A
057
7FE
7AC
00F
00E
01A
01B
780
791
01B
7F4
7F0
00A
009
008
7F0
001
042
7F5
7F2
7F4
7E6
7FA
7FA
7F5
7D9
7E0
010
013
7E5
7E7
7E0
00B
010
7E5
015
7E1
016
7EC
033
7E6
7C7
012
7D9
003
7BA
002
7D8
7D9
024
7ED
7FB
7C2
7F9
7BF
011
088
7ED
75C
019
782
7F2
00C
7DB
79D
7F5
7EE
014
7FB
7E6
7F0
7CE
7EC
7E4
097
01B
7E5
7DC
04D
7F4
7DA
001
7D9
022
001
7DB
01C
7D9
014
7DF
7E7
7F7
010
00F
0E0
7DC
7F4
7E7
016
7CE
010
7E9
7E5
00A
7E8
7E3
00C
7F4
7E1
053
7DC
7FF
005
7B2
7E4
088
00B
77A
78F
009
7F6
027
092
00F
7E7
7D2
7F9
7FD
01E
7F7
016
083
7E9
7E9
7DE
05C
797
00C
018
7ED
006
01A
7F7
7E6
004
7FE
7F6
7F9
7DC
7EF
016
000
7DB
7FB
7BB
7EF
7DF
01C
012
013
00C
7C8
7E1
009
015
01A
7F9
02E
010
7F0
7E3
7ED
015
00C
7DE
7ED
7F0
7F8
7FA
73C
0C7
012
789
7FD
7E6
7E5
76F
7F5
770
7FB
015
7E4
796
7EB
7F6
7DF
7E8
7E5
7EC
062
7F6
003
7E8
001
7F2
7ED
09C
00E
7DA
7EC
04B
03F
7DF
7DA
7ED
00E
013
019
006
7F8
7EF
7D7
03C
015
7E2
7C9
7DD
751
7F1
001
7EA
01A
013
007
7EE
7CE
004
029
7C2
7FF
7FF
7C1
7E9
027
7F8
740
053
7E4
7EE
7E5
018
006
7E5
7D2
004
013
079
018
03E
7E2
7F9
01A
7EB
05C
7CE
7E9
01D
02A
011
7F6
7E0
7F4
00F
052
7E5
7D0
7DF
7F1
7E1
7F5
03C
017
7A6
009
7E1
7F1
7F7
006
013
7E3
7FB
7FE
018
014
7D9
7F4
7F5
021
005
7FE
004
01C
7FC
007
7E1
7ED
7EA
7B2
7D6
7FB
775
00F
019
7E6
75E
013
776
7FB
7DB
7F2
02D
014
00E
7F2
013
00C
7DA
7C0
7E1
7F1
7EB
015
7ED
00E
761
023
7FD
005
7EB
038
7FC
013
009
7DA
00F
001
7DC
00E
7F6
7D6
090
7DF
7F1
7F7
7F8
760
7E8
7EB
7E6
015
7F2
008
7E3
7CE
7DE
04B
7CB
7F8
7E2
01C
7EE
05D
7E7
78F
77A
01A
7F0
03B
0A4
010
7FC
014
7DE
7F1
0BC
7F8
7E4
017
7F0
7DF
7DE
006
76E
7F6
015
001
017
00D
7EB
00F
7EA
04E
7DA
7CD
7EA
7E2
005
00E
027
7FB
759
7E3
007
025
019
7ED
004
020
010
7D9
7DD
016
7E4
7E0
015
000
7F6
7E0
7E1
7D7
7E1
7FA
012
7CA
7F7
004
02D
010
79A
7E4
79F
00D
767
019
727
01E
7F8
7FC
7B0
7FF
7E5
7E9
7ED
7E5
7F6
001
7DA
7E5
007
003
7F8
7EF
025
7F7
018
7E8
05C
7CB
7F3
004
7DF
7FF
7DA
7E4
00D
7DB
010
7FD
05C
06A
7D7
00C
020
79D
7EA
7F8
7F1
7E5
7EF
7EE
7E7
7D7
009
72B
04E
015
7E4
7C6
7EE
0DA
008
7D2
021
7E1
003
7CB
059
7FC
7DD
7E8
7EC
7FF
7C1
019
7A5
77D
004
7FA
7EA
7DA
7E6
001
002
7BC
017
012
001
008
015
0BB
00D
008
018
019
017
00C
78F
7FF
74E
7FD
7ED
7E9
00F
015
017
023
7F3
7DB
001
7E6
003
7FE
7E9
78C
027
7F1
7F3
017
001
010
7CC
7ED
7F3
07A
02C
7D9
04F
7E5
00A
013
6F3
013
75B
008
00A
00E
7ED
014
7D2
7FA
007
7EC
7EF
7CF
015
000
072
002
7DB
010
042
017
014
012
7DD
7D2
7EB
006
000
01A
7FE
7ED
7FB
015
7EF
00D
04D
019
01A
7DE
00A
046
001
7E7
7EE
7F1
7E3
01B
7EE
01A
001
7F2
026
7F0
7EA
02A
7E8
03F
7FC
7C9
036
00D
7DE
7D0
7C4
00B
002
7D7
7DB
003
7C8
7F4
7A6
7F0
7E6
7F1
010
00B
7CB
01A
7E7
7ED
7F9
7FE
00B
017
014
02F
7C0
032
7F9
010
7F3
00A
01A
7F3
031
020
7F6
001
01A
7ED
7E0
7CD
013
7DE
7F7
015
7F4
7FE
012
00E
7EA
7E4
008
063
016
7DD
7CF
7E0
7E6
7D2
00C
7F7
781
00F
7D7
7F7
036
7DB
779
005
003
018
7BD
000
7E1
013
7FC
015
015
7D1
7F0
001
01F
001
013
7EE
7F5
015
7FC
003
7F2
7BF
7F6
010
00C
7ED
7F1
7FC
7E1
7EE
7FF
7F1
065
00B
7B6
7FF
7E9
762
004
022
7F8
00D
7D8
01C
7E4
7C7
013
043
784
7E2
00D
0C2
007
0E0
00D
7CC
7C2
7EE
7EF
7CF
7FA
7EC
015
7EE
00F
013
744
010
042
0AF
7FB
7EA
7DA
03F
7E3
014
7F7
7F3
016
008
00E
003
004
037
7EB
023
7C2
7F8
7DB
7F9
791
00E
080
00E
7FA
7F5
7F0
013
007
7D6
005
7F0
00E
7E5
7FE
067
003
7E6
012
002
00F
7AC
01A
7F9
018
7F6
7FE
012
09B
7E8
7A0
7E8
01B
7EE
743
012
005
016
015
00F
000
7F0
7F7
008
7D9
017
012
7FE
7EB
7DD
03D
020
7C2
016
004
7ED
7FB
011
7DC
7CD
005
001
7F6
00A
7F8
7E5
016
00B
7F8
7CD
7D7
039
7F4
7CE
7FC
013
015
7DF
7D9
7DC
004
7DC
00B
7B6
7DF
06F
043
7F7
7DB
7F0
7F0
026
7ED
048
7EC
7E6
7F9
7FE
7E6
00E
013
000
00F
7E6
7BB
00F
0CB
084
014
7FB
7E6
7AE
7BA
013
00D
7B8
010
004
7EE
008
7E9
044
7DA
051
01D
00B
7F6
003
7C3
7DE
798
024
7DC
7E9
7FF
00F
001
043
7E1
7E6
7E8
01E
7EA
7EF
00B
7B4
00E
7E5
001
044
004
7E2
7F8
7E2
7E5
7E8
040
7E8
02D
7E1
7F8
019
7B8
7FB
047
00A
00B
7E4
02D
008
7DF
7DA
002
016
7F3
70D
000
019
01D
00C
003
013
6F1
002
7F2
7E0
7F0
06F
000
7FE
7E8
7DA
7E3
7DE
00D
013
004
7E6
09E
79F
7EC
007
7FC
7FF
016
00B
001
7FB
000
7FB
7F2
007
7E4
7FD
7A3
009
7F2
099
7FC
085
7FA
014
776
018
016
007
091
00B
7E5
004
019
7FF
7C9
7FB
04A
059
7FD
7F2
7E0
780
7E4
01D
7E5
7C6
00D
015
00D
7EA
002
098
020
001
7E5
010
017
006
7A4
014
030
002
009
7E3
007
7EF
7E8
000
00E
000
00F
7FA
008
7E8
007
7CA
004
7FF
7E1
798
7D9
7E3
7F5
7E3
00A
7DE
025
014
7DC
7EC
777
7FD
7DE
7EB
020
018
7F2
7DC
77F
7DA
7FB
7E3
00A
7FC
016
079
000
7FF
7A6
00F
000
7FE
7FD
7FD
7DB
7EA
015
6EF
7F1
7EC
00B
01E
00F
7E6
7DF
7E3
00D
037
099
7D2
016
019
018
04B
7F4
7E9
000
007
016
7C0
7E3
7E7
011
7E1
038
7E4
019
774
011
772
7FD
794
773
003
00F
7CD
7FB
00E
01C
7E6
002
7D9
7C5
002
780
7A1
7EC
7FA
7F7
0B7
7BE
7E9
7E7
7F7
7E3
00B
00B
009
7EC
78F
7FA
03A
7E6
7F3
7DC
00B
048
013
7C4
00C
7F4
7D2
002
7F1
7E8
019
009
01D
7F6
7E8
7FB
76F
7F4
7D8
017
001
013
008
7F7
008
7C1
7F1
7FB
075
7D5
7E1
019
008
73A
01B
02A
7F8
7D8
7F7
00E
011
74D
017
7CC
7F2
7F6
014
003
7E7
7DF
7E1
029
7FC
7EF
018
792
00C
7EC
00D
7FE
03A
7E8
006
7E2
7EB
005
7DA
004
7E1
7FA
7E9
0BB
7D1
00D
7B6
015
7A8
7DB
001
7D7
7F2
006
7F6
7E8
7DC
004
7A1
7D7
7EC
00F
01F
7F8
04F
7FC
791
774
00C
7E7
01B
0BF
005
7E5
7F9
018
01C
0A6
7EB
7DF
7E6
001
002
013
7D1
7B6
014
7F8
7CD
7F8
7ED
00E
01E
012
019
01C
7DE
002
7DA
7F1
009
010
019
7F6
7ED
005
7F5
7EE
7E4
7FA
013
00F
7E8
7DD
005
009
7FB
7FF
01F
01E
7EB
01F
01E
018
7F0
007
7F5
7EA
796
046
00B
76A
7F8
793
008
735
7FB
7D6
7FC
7F4
014
748
7FB
003
7F4
7F5
7FC
002
049
7FA
002
7E6
019
7DE
7DD
7AC
7F3
7F6
018
00D
7DF
011
000
7E5
003
7E2
7F3
7EB
7FB
7F6
7D5
0B1
049
7FC
7FC
00E
79E
01B
7F7
001
00C
006
7F9
7DF
7E6
7EE
779
02D
7FD
7F4
7CE
000
0A4
7D7
784
77E
008
7EC
7D5
791
00B
004
7E9
019
7F3
7F1
011
7F3
0A6
000
7F2
005
053
7A1
7F8
7F8
7EC
012
004
7E2
7F0
008
07D
001
018
7EA
01B
7D7
01A
01C
015
044
7E2
7E3
7E4
7E1
011
008
005
001
7DE
00A
01A
7ED
040
7F8
76F
00A
7D6
7EB
03A
7EC
7F2
7E9
003
7F4
7FF
019
017
7D1
000
075
7F7
768
017
077
004
016
7F2
78A
013
7D7
7DC
7F3
7D9
01A
7C6
00F
00F
7EB
7F8
002
004
7B3
7ED
7E7
7E8
05C
7EE
7E9
7DA
007
7F4
7DB
7E4
7E2
7EA
7FA
7BC
074
0DA
009
7DD
7E8
022
7EE
7EE
7C9
00A
010
005
7F2
7DC
7FC
03C
089
009
7E0
7DE
7F9
047
008
71E
08B
7EC
001
7DA
7CB
7FA
002
7DD
00F
7EF
76B
7F5
010
7D0
001
004
7FC
01A
00A
7E5
01A
7C6
015
00B
7F6
7FC
7F3
02E
013
084
7EC
7E4
7D4
7FA
023
005
7D9
023
7EE
7E6
7EB
7D4
7E2
012
7EB
012
7E4
7EC
7FB
7E8
00A
08C
7FE
01A
009
02F
7E3
7D9
7F2
001
7E5
006
7BE
7E0
02C
7FE
00C
007
02A
00F
753
010
016
7F7
04B
00E
02E
011
7EC
7E4
005
7B2
010
009
036
019
7C9
008
72E
004
7E0
7F0
01C
7A7
7DD
014
7E6
005
00A
015
004
017
016
7D9
060
017
7DE
7DB
003
748
7FF
7E9
7E7
003
019
016
7E4
7E6
7E2
7B2
795
7DC
7F6
0A6
014
08F
012
7F6
7E6
007
7F2
7D6
7F4
7DE
7F0
008
7FA
004
72C
015
0E7
08C
7FF
7F5
7FB
096
79F
7F6
00D
7F6
01A
7FF
7E5
7FE
002
000
00B
00D
7D3
003
7CB
7F8
778
7F7
021
000
7EC
009
7FC
7FC
011
7B2
7FB
016
016
7DB
7E7
01B
003
7B4
7F7
013
009
794
7FF
008
7D4
7DA
7F2
7EC
015
011
000
018
02A
7F6
7E2
7E7
00E
00B
001
00F
032
004
00A
7FA
7E8
7F5
7E3
7DD
7E7
002
0A2
7DF
7F7
010
744
7D1
7F4
7D8
780
00B
7F9
7F9
7DC
008
7EE
7ED
7FD
7E0
001
026
034
7F5
004
7F7
7FB
7E1
013
01D
7C9
7F7
012
00C
012
7F3
7E2
038
032
7F8
000
7BD
000
048
7F3
778
7EA
7FA
00C
7DB
7CA
7F5
014
7FD
008
004
7CE
003
7F8
7F1
018
007
7EF
002
7AB
7DC
7FD
7EA
7E9
7F3
009
7D9
7EF
7FD
7E1
7D4
7F9
7E5
7DF
7FE
023
005
7DD
7F2
7E9
016
7F8
01F
019
7E3
7F0
7DF
7FC
7E3
7F2
02C
7DD
000
015
7F2
00C
051
7EC
7FF
008
7E2
7F3
057
07B
7DE
7D3
008
7BE
7F0
7E9
014
7D6
7EB
003
00F
025
7EC
7F2
00E
00E
001
00D
019
7FA
000
018
7E3
7F1
7DC
7B2
7E7
7E3
014
7D0
079
017
7F1
7E6
7E0
7E8
020
018
7E0
7EF
7D4
00F
7EA
7BF
7F3
016
7F9
7F8
7E1
7F5
014
7EA
7EA
01A
7CE
7DF
046
7B0
7DF
020
775
7F9
051
7F0
770
7E6
016
021
017
00F
00A
7EE
7F5
01B
7DB
7A7
016
001
023
013
7E5
009
007
009
7F1
7F1
014
000
018
7F4
7FC
7FA
7C6
7E8
7F8
7E4
7F6
7FC
00A
091
7F0
7FF
7EB
000
014
005
7E8
00D
7C9
017
7FD
7F2
7E3
7E4
072
7FB
7B5
7FE
005
7F0
7C7
000
021
7E9
02A
7FF
7A5
749
7FD
7D8
016
089
013
796
7F0
060
7FD
00D
00D
035
7FE
7E1
006
7E0
7FA
7E8
7ED
00E
016
71B
023
015
7F7
033
7F5
003
00B
7F4
042
7DB
7DD
008
7EC
7F5
009
7F6
006
7DF
7E3
005
7F9
007
7F4
7F1
7FB
7EB
010
7DD
00E
014
7F6
005
011
7DF
7F7
02A
7DF
7F1
006
009
7CF
7E9
013
7EE
7E0
7EB
7EC
7E5
7FD
7D9
7E1
7F1
7FA
002
7DB
7EE
02E
7E9
7DA
7EC
006
003
7F5
7FB
7FE
7DF
7FE
7FE
7EA
010
7D0
002
00B
7EE
002
014
7E7
005
006
7D7
009
009
006
7F9
7FB
7E5
7E6
7F4
7ED
7FB
7E3
004
00C
019
019
012
007
000
029
004
7F0
00B
7EC
00F
014
010
003
7DC
002
009
7F7
008
001
00F
017
014
7EE
7C9
7E4
7F0
00B
01F
7EC
7F7
008
7F4
005
00B
7EF
01E
00B
01C
7DF
7FB
7EC
00A
7D0
003
009
010
7E7
7FF
7F1
7FD
011
001
7F0
038
7F7
011
7F7
7E1
054
7E6
00B
7F5
7E6
7D8
00C
008
7F4
7EF
007
0B4
7D8
005
79E
7F0
799
7F9
790
061
019
012
7F4
7AB
007
7DF
7C8
007
7EB
02B
7DC
7B7
7B2
7E6
015
019
063
79A
013
016
7EE
020
7EA
002
7FD
015
7A5
011
00D
001
00F
004
002
008
012
00D
7FA
7E8
7D7
7F4
012
007
7F3
7F9
7DD
002
7E3
7FD
798
7F9
007
7F9
014
014
031
7E1
005
003
012
7CD
040
003
00A
7C3
7F3
038
00E
7A3
7E8
7A4
01A
01B
7DA
00B
7E8
7F8
7F0
7F5
7FE
7F2
7CB
003
7F9
037
7E5
00A
7FF
7D7
7E6
7ED
7E8
7DE
7F5
008
7ED
001
7E1
7F8
7EE
7DB
003
7EA
7E7
038
0BA
7E1
7FC
7FF
026
018
00A
7BD
016
00F
7E7
000
7FE
7E7
7E8
07E
001
7E2
077
7F4
7FC
010
7AA
023
00F
004
7D6
05B
000
004
7E2
7E1
7F2
775
00E
01C
004
000
7EA
006
05A
7F2
011
012
7FC
7EE
7E9
7E1
00C
7EF
010
011
067
7F5
7F2
01B
7FA
00C
008
771
01A
008
7F4
000
7D8
004
7D5
7F0
011
7E1
7ED
009
007
010
022
7FF
7DE
7F7
03B
01A
7F4
7F3
7C4
7EB
01A
7C0
016
7E9
7EA
014
7DF
035
000
746
020
7DA
002
096
7F7
017
00D
7EA
00D
7FF
7F3
00D
7DB
026
007
7BF
7EC
792
008
7E2
012
062
7A1
7DD
004
7EF
7FD
7EE
7D9
00C
004
7E7
7EA
785
00A
7EE
007
7EF
7D4
7EF
7FB
7D8
004
7E4
7F0
7F8
005
011
022
01B
7ED
7EB
7D8
002
02C
7EF
788
08A
004
7DA
033
075
00E
000
7CC
7E6
7DC
7F4
017
04E
018
005
008
006
029
7D2
7E1
018
7D6
01B
7FE
010
7F7
7FF
030
7DB
015
7F1
004
7FB
7FD
7E1
7DC
7F4
003
019
7F9
7F1
00F
7E8
7CB
7EF
7E9
7EF
7F8
003
040
018
7ED
000
010
00D
01A
010
000
00C
7F0
013
03F
7E7
00F
7D8
00F
7AE
7E0
7B6
00D
7B8
019
7E5
7F9
7F1
7E9
009
7FF
7E3
7EE
018
793
7E7
7FC
01D
7FB
7D7
7F8
014
016
7F7
7EA
032
7F3
7F6
025
7CF
7FC
007
00B
7EE
7DC
7FD
7C8
777
119
7C9
7BD
7E0
009
7E6
7E7
015
004
00B
7E0
7EB
7F0
7FC
0B6
7FA
7E7
008
794
7FD
796
7DB
00E
000
7E8
7EE
028
7A4
00A
7F7
7E1
010
7FA
05B
7E4
7CD
7BC
015
7F5
004
02A
076
7DB
7F6
7F8
7E1
7E7
7F7
7F4
7E7
7F1
7C8
08E
7DA
000
7FB
7E3
7C5
016
7C5
7F8
7F4
00A
00D
015
017
7BD
018
7D9
007
7E5
011
7B1
7E0
007
017
7F8
010
046
009
000
029
032
7D4
7B3
7C3
7DB
746
7FC
7F0
016
7DD
010
0AB
016
7F6
015
7EC
7F7
7BC
7F2
00E
7DF
7F2
725
7E3
7F3
090
01A
7F9
7F6
7D3
7DB
7DD
7DC
7F5
017
7F8
7F2
016
7FB
00E
015
008
7EF
7F0
7F7
794
015
7D5
009
7F7
6E9
7F5
015
00F
00A
7FC
001
7F3
01C
7EE
083
687
7FA
7F3
7E9
7ED
7F3
7F8
06E
077
020
7DA
7ED
01A
7FA
7E9
7FA
7E2
7E7
03B
018
084
041
7EB
007
00B
7F7
7F8
016
01F
7A1
7EF
7ED
7E6
00F
7F6
074
7C6
7B0
7E5
00C
00F
7F5
72D
009
79C
008
7E8
7EE
7E1
7CF
007
7B7
006
012
7ED
7EE
7EC
053
019
7D6
7F6
7FF
7E1
748
7E3
013
012
7EA
005
015
066
7D9
7D8
7F7
016
7FE
706
7E9
001
7F4
7F4
7F3
01B
7F5
7DF
7EE
7E5
005
010
78D
7F8
7F7
05B
004
7F1
7F8
762
7EA
7E9
017
0B3
733
7EE
002
00A
000
014
011
7DC
002
01B
7DA
0CE
036
00D
7D9
7F5
005
7ED
019
006
7EF
00A
7E3
014
7E6
00D
749
013
7EA
004
09C
7DF
77D
7F1
7AD
77F
006
017
7AF
0AE
015
012
7F5
008
7EE
04D
7DF
767
050
7E7
7EA
7FF
093
75F
7EF
01F
7D3
7E5
7F6
010
7DB
013
7FC
03B
03C
7E6
7F7
7C5
7EA
7E2
7FC
00F
7E5
007
01A
018
7EC
019
00F
7E2
7FC
7DE
014
015
094
7FA
7D2
7EA
7E2
015
75D
7FA
7E4
7DE
7CA
7FC
7FD
045
7DB
77B
7F0
79F
010
6FE
7DC
7E3
01B
7E9
008
7CE
7EF
01A
012
7F3
012
7E8
04D
017
7EB
03E
019
7D8
7E8
7B2
7D8
7F4
016
79C
010
008
7FF
7F8
014
7EB
7FF
7F6
7E4
004
7FF
02C
001
00A
020
7EF
010
00E
01A
7F4
7EF
000
7EE
00B
01B
7F5
7AE
7F0
7F1
7F6
067
7E1
06B
7E2
740
7D4
009
7E4
001
0A4
7DE
7E6
7E9
7E0
002
01C
000
74E
18D
01C
011
001
0A8
7B3
00D
7DD
7D1
7E1
7FB
00E
7FE
7F9
058
000
7DE
00C
009
007
7E0
7B7
011
058
017
00E
7DF
7D9
01B
7DA
79F
7F9
016
002
7E6
003
7F5
005
7EE
7E9
007
7EE
792
7DF
7F6
7FE
7CC
7CC
7DF
081
7F5
7D1
01C
085
00F
006
002
7A2
7E7
015
01A
018
01C
7FC
00F
014
7F8
7EC
04F
001
7F6
002
7E2
7EA
7EE
7D9
7E1
00E
009
77A
734
7FB
00D
00A
7E3
006
011
7F0
006
010
7D9
06B
00B
00C
007
7EA
76F
7EA
00E
005
00A
7E7
7E1
7FA
7E0
018
012
72C
019
7F4
79D
027
095
004
7B0
767
00B
7F3
00F
01C
7FA
7D9
7F2
014
7F2
761
00E
066
0C1
7EF
7F8
00F
7D6
79F
7F8
016
7FF
7F3
015
7E4
00C
7DC
7E0
7EF
7A7
7F0
7F7
01C
018
778
7F7
009
004
013
01C
7F8
7F2
7F1
00A
00F
7F0
009
00D
006
7D3
7EC
7EC
013
01A
00B
715
7DE
7ED
01C
7E6
006
7A5
08F
7EB
73E
7F6
002
003
702
7EB
7BA
7F1
7FD
002
04B
7FB
005
018
006
016
7DF
710
7D9
7E4
0C9
7E7
7EA
01D
796
009
7E6
7E1
7DA
00F
7DA
003
7FA
7EC
011
006
7F8
010
7F0
00C
7C7
00B
7DD
7F7
01B
7FA
7E7
015
003
7E9
7DC
7F9
7E5
7F1
7DB
7E8
7D7
7FB
7E8
003
7F9
032
007
030
7EC
7EF
00F
7DE
013
00F
002
005
00A
00F
7ED
014
7EB
016
7F5
7EB
7E2
021
008
7EB
003
7F7
012
7E3
015
7EF
001
7CA
7F9
7EF
7E3
7FF
7EA
7FE
7ED
7F3
7F4
017
012
013
7F9
018
7F2
005
7F1
7EA
7F1
7E2
011
005
016
7EC
7E4
7E7
7DF
7EB
7DA
017
015
00F
7FE
02B
039
7EB
015
003
022
010
018
7DB
7D8
015
7FD
7F8
026
7FD
01A
7F8
7F3
017
00F
7EC
7F0
00C
013
023
00E
7F5
016
7DE
7EF
018
7DD
7EB
00F
7E4
00C
7FD
7F2
7EE
008
7E9
017
7F5
007
00F
7F7
01F
7D9
7ED
00F
010
021
017
7F8
7E0
002
00E
7EB
7F9
7DA
01B
7E1
027
7DF
7EF
7F2
002
7DE
7F0
00C
014
7C1
018
009
014
00D
016
7E0
00D
7E1
009
00A
007
7DE
034
005
7EC
7FC
7FD
7E4
7EB
00D
011
7F7
79F
7F3
00D
7F4
7E6
013
7FA
7DB
7FF
01A
7EC
00F
7E4
022
7E3
7F1
7F9
7E2
005
7DA
7E0
012
010
000
7EA
014
7E7
00E
7C6
004
010
7C5
7FF
7FC
7FC
7FC
008
7E0
7E6
7DE
7E7
7C5
013
7EC
020
7E8
008
7F7
7F9
7F9
7DB
7FE
7DE
001
7DD
7F7
012
7EE
7E4
014
7E8
7E8
7DC
00C
7E6
7FA
03C
00D
7FB
7D6
00C
011
7DB
015
011
019
7CA
75E
051
7E3
7F1
016
042
7E9
00F
000
006
006
7CA
019
7B9
7F8
061
020
7DE
7FD
04A
7E5
7FF
7E0
7FC
7A9
7EA
008
010
056
7DF
015
7F9
7F8
00A
074
006
7F6
7BF
014
7F4
013
7A0
06F
7EE
003
02E
7F7
012
7F3
7E5
008
7C9
7E7
040
7E7
7F5
7F2
00F
7C0
016
03F
7FF
004
7DF
7E5
7F5
7FE
7BF
7F4
7E1
002
004
003
77C
7E9
7D4
7DF
013
010
022
019
7DA
009
7F8
00D
7AC
7E5
7E1
7D5
00A
7C7
011
07B
7DA
0D2
018
7F8
010
7CB
7E6
7D8
008
018
7E5
7E2
79D
7E5
7DC
01E
7FC
7F3
7E0
7AA
7F0
011
009
05C
7FB
01E
7F3
7CC
015
7F8
7D9
011
7FB
7F0
7F5
779
0D2
7F6
7C8
7F5
035
00E
7DD
7F5
7F3
7FC
019
00D
016
7E6
06C
112
00B
7F0
07F
7FF
003
7DF
7DE
02F
7EF
7FE
01A
00D
7DC
7E8
7CF
002
00B
0A1
005
790
016
7EE
7E0
00A
036
018
7F8
7DE
7CE
015
007
7E8
015
7E1
077
7DA
08A
7D5
7FE
7EF
7F9
023
7F9
7D5
7F3
014
01B
00B
015
010
7EC
00F
7D9
7F7
008
004
75C
7FA
7FC
016
7FA
7FF
077
00D
011
01A
012
7DE
00A
7D3
7DC
021
7EC
7F2
00F
011
7E5
07D
7F8
7E5
019
034
7F1
7DB
7E2
7FE
00D
004
7C6
00F
002
7FE
00F
7B9
7FA
7D0
7EB
017
006
7C6
01B
7ED
002
01E
7DF
7F9
007
003
7F5
7EE
00C
020
7C8
7E2
009
7EF
7E8
7F0
012
015
7E5
014
7EB
001
7EA
019
04E
7CE
003
7E6
024
00D
0DC
7F4
79A
05A
7EE
00B
7A9
008
016
7E0
7E8
7E7
7DC
787
7FB
75E
0D5
7EA
7F1
7E5
7AE
7E0
7E8
7F7
00D
7FD
011
006
7E3
7E2
030
7F5
006
7EF
7E9
004
7F5
7FB
010
012
011
015
00D
7F6
003
006
7FA
7FE
013
7DF
7F7
7F1
046
01A
7F1
011
019
7F7
002
012
7F1
7E7
7DA
7D6
79D
7F4
7EF
7FB
7E3
07B
005
7F4
006
7D4
7FB
7EC
7E3
05E
014
7F2
7E6
00C
7F9
7E6
061
7DC
018
006
7F7
7F7
00F
035
00F
7EC
016
794
01C
7FA
7FD
7DC
004
7EA
010
7DE
7F5
003
7FD
031
7D4
000
7DF
7E1
008
7E1
7F5
7D9
7ED
00E
010
7F3
008
001
006
047
009
006
7D7
7FE
0D2
7DB
01A
02E
7F8
00F
7E2
003
010
7E3
7FF
7E3
015
765
001
7E1
03D
015
009
01D
79D
7BD
011
011
7D8
7DF
7F2
7EC
003
7FF
79D
7ED
01A
7E4
7E1
7DF
7EA
7F9
018
04C
00E
7F3
016
007
7E0
7FB
7D1
001
7DC
7F5
7E0
7EB
020
002
02A
7DD
7FB
7EB
00D
019
01A
7E5
010
011
07D
06D
7F6
7D4
00D
7E4
7F7
003
7EC
087
018
7E1
7E3
7ED
7FD
7FB
015
7DD
7DD
7F2
027
00E
7FA
7C6
7E4
7E3
7DE
77C
7FF
014
7F0
785
7D2
7E5
003
7F7
7F9
00A
7E9
7F2
00F
7DD
7D3
78D
0F6
7CC
7E9
011
035
7F2
00D
7E9
7E3
003
7E3
00A
7E9
007
05D
02F
7F8
7EF
035
00A
0B2
7D9
01C
7D6
7E5
7F6
7E7
7EC
018
7E5
7FB
007
7DD
7AF
015
003
052
012
01A
00D
7F6
7D6
7E8
002
7F6
7E9
00D
7DB
001
7FE
7B8
7CB
7F2
7DE
00B
001
00B
78B
7E3
046
7F6
011
013
7F7
7EC
008
7AF
002
007
7E8
004
7FA
04A
019
785
007
00D
7F0
7FD
7EA
7EB
003
7CB
7D8
009
004
000
7EA
7E2
09E
7DE
7B7
00C
075
006
00B
01B
048
012
7D4
7ED
005
7EF
014
064
7EE
7D9
027
023
016
7DB
0D7
020
7DA
7F3
7F4
024
008
006
7F0
00A
7F9
7ED
7FF
003
7DD
013
729
03D
002
7BA
7F3
02D
7E5
01B
002
019
00B
005
00C
029
014
7BA
7BF
7FE
7E9
791
7E3
7CB
00B
04D
034
019
00D
7EE
791
7EA
013
7F4
01B
004
012
01A
011
7A1
7E6
7F8
7F3
077
050
019
00A
7C2
013
003
7EB
7FE
01A
75B
7ED
047
7F6
7EE
7F5
002
7F9
7FD
022
7E7
017
7F7
7F7
7DD
7EE
038
00F
7E5
7EA
7EF
7FE
04D
009
00E
7DD
011
004
01B
7EE
7E2
7E0
7C4
00C
03F
01E
7DB
088
7F1
01B
006
042
019
00D
014
7DE
017
05D
014
7D1
7E1
7F2
006
023
7DB
00C
010
7DB
7ED
7DC
7E5
00A
7F8
018
018
7E2
7BF
7E8
011
006
7E5
7E0
7FC
7E0
7E8
7E1
7ED
05C
02E
7F8
7EF
00E
03E
7E8
7F5
005
7FA
009
7F6
7E4
7E7
01A
729
01F
00B
014
01A
01A
04A
00D
08B
7CF
00A
013
7E2
057
01A
00F
7FB
7DD
7ED
764
003
6E8
7A3
00E
01A
7EA
038
7DC
7FE
001
7E3
7FC
7FC
7E8
01A
013
763
000
7AD
7EE
001
7EE
7F9
7FF
7FD
7AD
7EA
012
7DB
01F
013
7DF
02C
011
013
7E8
00F
011
7F8
019
001
7E2
7F5
7E0
010
7DA
015
7F9
7F4
002
0C6
03F
7E4
7BE
7DD
7BD
015
02A
00F
036
7D9
7DE
7E8
7E6
015
004
7DC
7F4
004
006
03C
01A
001
7CB
7E2
7F3
7EC
017
7E6
011
001
07D
7A9
00D
7F9
00C
7E3
7DD
002
7DD
009
7DF
7CE
042
04E
7E4
7C9
7E4
7B0
7E3
7E9
008
7F5
7F0
7E1
007
7DF
015
09F
026
019
7EF
06D
7E3
030
7EF
779
006
7E6
001
7BF
004
7E2
7DB
7E8
017
009
736
7F0
07D
000
00E
004
000
05B
057
00B
002
7C0
01C
7FA
7E8
005
005
055
00F
057
7EC
002
7E4
013
7F3
7DE
75C
7FB
7E8
7DC
7E5
7D0
7EE
7E5
7EA
00D
7DA
7FC
00B
01C
7F5
035
004
7E8
006
022
00B
004
7D3
00A
7D7
03E
01B
7FC
01F
7F9
085
019
7AC
00C
777
7F3
008
000
03D
7DF
7F5
005
7F6
7DF
010
7E3
7F5
7F9
025
01C
030
7F7
7FC
017
01A
7DA
7FF
015
7F3
015
01E
00E
017
7FB
007
008
016
7F2
003
7EE
7E3
7DF
7F5
7F0
7EB
7FD
7E0
7DD
7F8
7E3
01A
00E
009
005
7D2
7F3
000
7FB
019
013
7D7
007
7FE
00B
7DB
011
013
7EB
7F0
008
00C
7DE
7E5
7FB
003
002
7DE
7EB
7EA
03F
00C
7F3
00D
7DC
7F0
00D
7E4
7ED
7E8
7BC
7FD
7E5
005
7E9
01F
7E4
7E1
012
02B
004
00D
00C
7E2
015
00D
001
7D9
017
017
7F3
013
7FC
001
7EF
7E3
7FA
7E1
012
001
7E2
01C
000
005
013
041
00E
7ED
7E0
026
00D
7FC
7F7
022
7DF
7FA
7EB
038
019
00C
7FE
00D
7ED
7FE
7AE
7F4
00F
005
00D
7F0
7F7
008
010
7EF
7DE
7E5
7E3
006
009
016
00B
019
7F4
006
7F0
020
7CD
7BB
008
011
011
00F
033
7FD
014
7F4
7FE
017
7E4
00B
006
009
7A9
002
7FB
003
01A
001
7FD
017
04D
7F1
7D7
7DB
009
001
7F5
7FE
7FD
7E3
010
001
7E4
03C
001
010
009
7F8
088
009
7FB
00B
7E2
013
7FC
7F7
7FB
7E4
7A2
7D9
006
7F3
002
003
7E0
7EE
00E
042
7EC
014
005
7F0
7E3
005
7E8
018
003
007
01B
010
7FF
7F5
013
7E2
7F4
022
02D
7F2
7E8
7D2
7EE
7DC
007
01C
7E8
026
015
019
7F4
02C
7E1
012
7DA
01F
7F6
030
7E1
7EC
7E6
021
012
7E1
7CB
7F0
017
7FD
7F2
7F9
015
00C
7E3
00E
7F7
7E1
7C3
7EC
019
020
7DA
7DB
7D8
7FD
00B
7E8
7F9
0AA
03F
7DF
7F6
7FD
76D
7FA
7E6
015
7F3
7E9
7E7
7E9
7E9
7F2
7C7
7FD
7F3
007
01D
7DA
7C0
7F8
02D
02A
001
004
7A5
07E
015
7FF
00C
020
005
7B4
7E6
7E1
062
7DF
7F4
00C
021
792
7FD
018
004
7F1
7F0
7DC
7F5
7EA
02A
026
7D1
00B
011
7F9
00F
011
7FD
06E
016
7F2
007
7FB
7F5
7F6
7E0
7FA
004
7F2
7F2
7F3
00F
7E7
7D2
019
01B
7F7
732
7E7
7E6
7FA
7BA
014
046
05F
7E1
7A4
00C
770
7F2
745
7FF
7C9
015
014
014
761
7E7
7F9
01A
7DD
01D
001
012
00A
7E2
073
01B
7B0
00E
053
7F9
7F3
00D
7EB
7EF
7EC
7FE
7F8
017
00D
7FC
00E
012
007
7FD
7F5
01B
7DC
016
7E0
010
7F6
00D
7F3
7E1
7E6
7E5
7E4
7FD
7E5
010
7FE
013
010
000
013
7FA
7E5
7F5
7FE
7F7
7FC
7DD
019
01A
7D9
017
007
011
01D
00A
01B
016
016
7E8
7FE
016
003
7EC
002
023
7E4
019
001
7EE
003
7F6
7EF
7ED
00F
018
015
009
7EA
7F3
004
7FD
7F3
008
018
7F0
7E7
7E5
016
7E8
7EA
7E9
01A
7DB
7FF
015
7F2
7E1
7DE
00E
7EE
7D5
7E7
7DF
7ED
7F3
7F6
00E
018
7F8
01D
7FD
025
7FD
021
00B
00D
023
7FF
7FF
7EA
7F4
014
7DA
020
7E7
005
7FF
000
007
7E9
024
7F6
012
7FA
013
009
04B
020
018
7F5
7E1
01A
7D9
7D9
7EB
7EC
7F9
03F
7BC
7F8
01C
7E0
015
7EC
7F8
027
7DC
001
7CA
011
01C
7E1
78D
7B6
7D4
020
008
7DF
08D
7EB
024
7D4
00D
7EC
79A
795
7DF
7F8
016
7F7
015
7A9
012
785
7EF
7F6
004
7EE
789
7FF
01C
01A
7C4
7F2
7E8
7EC
7DC
7F1
79A
7CA
7D1
007
7FC
7FE
00E
015
009
065
7FC
7F8
7ED
001
006
7F6
7D9
7E8
7F1
015
003
00A
093
7F2
01F
010
7E8
7EE
7FB
018
00C
7D6
7BD
7D9
019
7AD
008
77B
7E8
0D4
016
024
7EA
785
005
7E8
7E9
0AD
7F1
7DB
7EC
002
7FB
7FA
055
001
7E7
016
7E0
01A
7F0
03C
7E5
7E0
016
7CF
7F4
00C
008
7F4
00E
7FB
7F0
7E0
00C
7F9
000
7D6
065
7E3
7DA
7F6
7DE
00B
7FB
7EB
7F3
009
7E5
7F0
7E0
017
01F
016
009
7FF
031
7FB
7F2
7EF
011
7EF
7F6
00C
012
072
7DD
009
7CC
7DC
7FC
063
7DF
04E
7E4
00C
7DE
013
002
015
7DE
7F3
7E2
7E5
018
7D9
7E8
007
73D
7C0
057
004
7F6
7E6
008
7F9
7DD
0AE
7DC
014
7ED
010
011
7F7
7DF
7F5
7F2
007
00E
003
02F
7DC
7DE
7E0
7F7
006
7B2
008
011
7ED
7D4
014
7E0
057
7E7
048
000
038
7ED
7E4
7EA
00A
7FB
00E
017
081
008
7E3
7FA
000
7E6
7EB
002
7E2
00D
7C7
01D
7CA
7E8
031
7E0
7DF
7DC
018
7F9
001
00B
7E5
00A
7F6
7E4
7FE
7F4
007
7FD
7FD
016
00C
7FA
01B
005
015
7EC
7D4
7DB
019
7F8
7E5
7DE
00B
7DC
008
00F
7F5
003
7EF
007
7E9
026
006
00B
7E0
7EB
00C
000
7FA
008
7ED
008
7F8
00F
007
015
7D8
7ED
012
015
7E2
7F8
7EE
00C
7FB
000
015
7E6
003
7FC
7F8
000
7F4
010
01E
011
7EA
007
00E
7F0
7E6
010
7DC
017
7E5
013
014
01A
7EC
003
7F5
7ED
004
008
7FE
009
7D9
00E
7FE
7F2
7DB
7EA
019
00B
7D2
7D9
009
7F4
7FA
004
010
7DB
7DC
7ED
004
7F7
016
004
7F4
019
7E7
001
004
7C8
7FF
01B
7FA
7EA
7EC
022
7FA
006
7F7
7DC
7E0
02F
005
7EA
7F3
7F6
00B
7FA
7E9
009
7FE
7EF
7B0
7EA
7D9
7E0
7DB
7A1
016
022
7C7
008
7E8
7D0
7E4
7CD
006
051
710
7E8
7FF
040
011
049
7E6
005
052
00E
7F4
7E1
7E8
01A
019
7E2
008
7F8
7DE
7F6
79A
0C2
7E0
005
006
7F6
7A6
007
7ED
00F
00F
010
7E5
7F6
01E
04D
7F6
7B0
7FF
7FC
7F3
7F2
783
008
769
7FD
003
7FA
7FD
7F3
7EF
7C2
002
7E0
7FB
7FF
00C
025
010
7F3
7FE
014
010
7EB
010
004
7F6
7E9
006
047
7FA
7E4
7E7
7FF
7E7
7F4
771
7FC
7A5
013
7E3
7E1
046
00D
7D0
020
01C
007
007
013
7ED
016
030
7F2
7F3
00D
7F9
7F9
7F1
001
7F9
741
7F5
7DB
005
011
005
001
018
7EA
000
7EC
7DF
7A4
7F9
7E7
005
7E6
7ED
7F4
022
7E5
012
7DB
7EA
7F2
7F9
761
022
7E7
017
070
017
052
7DF
76E
006
7E4
018
7FA
7C0
7F5
7F6
7DD
7FF
7EA
772
7D9
721
7A1
7F7
01B
7EF
034
001
015
7DB
7EF
01F
013
7F3
7FE
7DF
773
009
7C2
7F7
7F1
7E7
00B
7EE
7F0
033
7EC
7E5
7F0
00B
00C
015
7EB
7EA
01A
00A
7D9
7F5
77A
004
024
7E0
7FB
7EC
045
7E7
7E7
7CF
7DF
001
0BB
7F1
00D
7B1
01B
7EF
003
7EF
012
057
01F
018
7EC
076
007
7F8
006
7F2
013
7FD
7C8
001
7E9
05E
012
7ED
003
751
7EB
01E
007
7FA
00F
7DA
7EE
7EA
7EF
013
7E7
7F3
7E1
00F
7F0
7BC
004
7DE
7EF
7F4
00D
7EA
002
7E5
7DB
7F6
7EB
00D
7F8
013
7B3
7CC
7F8
008
7E0
7E4
7EE
7E8
030
02F
014
7EC
017
061
003
005
007
7DD
7E4
7C0
7F7
7F2
039
7E9
010
010
007
033
7E1
010
7FE
015
005
7FA
004
7DB
014
7EA
008
019
018
008
7F4
01A
000
79F
7DE
008
019
7F2
006
7F1
7E7
7EE
7D9
7E7
7D8
00B
7F4
009
7EB
7DA
005
010
7C8
7F1
7ED
7E8
019
002
08C
052
7FC
01F
7E7
005
017
7DA
000
00F
004
7FB
000
009
7E9
00F
7EB
01A
00F
006
7FB
7EB
7FD
01F
7F3
01A
7F1
002
7F2
01D
000
795
048
7E4
00F
7E3
004
7D9
007
7E1
7E5
013
7E5
711
009
7FA
00B
7E0
07A
00F
7F8
7CA
7F1
01A
7EE
7F3
063
7E5
77E
024
016
7F8
7CD
7DB
7DF
014
0CC
7D8
7F9
00E
7E8
059
7F9
005
7EC
7DF
7E0
01D
008
051
76F
013
7E3
00E
7E9
0A9
7EE
7DD
7F7
7E1
018
7E3
7EB
7EB
771
016
090
7E7
00B
7E6
7F3
070
7E9
7AE
7F8
7DC
00A
7D8
7E5
017
7FB
7DF
017
7DF
7FB
7F0
7D8
7E6
7F5
014
7FA
7F7
02F
7DC
7E4
7F2
7C9
7E5
06E
040
7EF
0C3
002
762
012
016
004
747
7E1
7EA
017
024
7FE
7EA
003
7EB
7E2
7EB
792
7DB
009
7ED
000
7E6
7F7
7DB
000
7FC
016
729
786
00D
7E9
7E1
7FA
000
004
01C
7F6
7E0
7F0
7DE
058
7E5
003
7E6
76A
7D9
018
7FD
006
7EC
7E3
7F0
010
7E5
017
6DC
7ED
002
055
7E8
09D
015
02A
071
008
7DB
7CD
7FA
7E3
7DC
7D0
017
7D7
7F2
7E1
05C
05B
7D9
7E5
013
73B
78B
02D
7D5
7CA
000
017
7DE
7E3
00B
053
7F6
01B
7E5
006
010
7F1
7C3
00C
7E6
7E5
7F9
7F9
000
7D1
018
7B8
7FF
005
7F7
7F1
00F
7FF
7E9
7DC
010
016
7E5
7C9
002
004
043
002
7EC
04F
03A
001
79B
00D
075
7FF
745
01B
7C3
7F2
007
001
069
014
013
7F9
014
00C
007
7BA
7E7
7EA
073
00B
004
018
01B
7E2
000
017
003
018
00C
002
011
7E2
7EF
001
008
00C
7E4
7F9
7E9
7EC
7F0
7D9
7FC
010
7F3
005
7EB
7EC
010
7DD
7F6
002
001
7D9
01C
009
7D9
00D
7EE
7FC
7EF
7EA
7F3
7E6
7E8
7F2
7F6
7EB
016
010
00A
004
7E2
7F6
7F2
01E
7F4
01A
017
7C3
7E6
005
000
011
000
7EC
7EA
00F
012
7F1
7F4
004
7E1
7DC
00F
7F1
7E7
013
005
7E6
017
001
7F3
7EA
00B
7FC
7F5
00C
7FF
7FD
7DE
7E5
7D9
7E8
7E8
7E7
7E1
7F1
7ED
005
7DC
7FD
7F7
7FA
013
003
017
7FD
7DB
7FF
001
019
7D9
7F9
01E
7F8
7FE
01F
7E6
005
016
7DE
7E0
00F
011
7F0
7F7
015
000
023
7FD
013
002
7EF
7D3
7E7
010
00A
00E
00A
018
7F8
010
014
00E
015
744
063
7DF
001
7DA
00B
7F4
023
7D6
00E
005
002
010
7EA
7F6
7A4
7B4
00D
00F
785
7F3
0B8
7E7
09F
08E
7EF
004
002
7BB
7F6
7E0
7FA
7F4
7E6
7B6
7FD
03B
7E5
7FD
7E8
7D9
7AD
7D6
00A
01F
7FF
7FE
7FD
7FF
014
7E2
783
7E6
7EE
7DD
006
007
7EF
7E0
7FF
7E7
7F0
7EB
004
7F7
006
7F2
7C1
7EB
7F7
018
00B
00B
027
7FE
005
7E8
7EB
7F3
044
7FD
016
7DB
7ED
002
021
022
7FA
007
7E4
06E
003
7E3
7E3
029
7F9
017
004
092
7DD
7D3
7F3
01E
7FD
7F9
758
7EF
7ED
7C8
003
7E9
7FA
02C
00C
7FB
7FF
029
7DD
007
7F0
018
001
7DB
000
7F1
7FD
7FF
012
0EC
7F9
7DC
7DE
008
7E0
013
7DB
01D
7FF
00B
7F5
7F0
7E4
7DB
705
074
7E5
7FC
064
005
021
7FE
00C
76B
01A
7EC
7D6
050
001
7F9
7D6
00A
7F4
7F0
7F4
741
798
7F3
005
7F1
06B
7F7
7E8
016
7FA
7DE
7FD
00A
7FB
016
7AC
007
041
7E9
7F0
7EF
00F
011
006
79B
00A
00E
7D7
7FD
7EE
7EF
001
010
000
7E3
7FE
00F
05C
7E5
7CB
01F
001
01D
03E
7EA
7FB
7D3
019
7C8
025
076
7E7
7AD
012
753
7EC
01B
7FF
021
7F5
7E9
00F
75B
7EB
7DB
7F8
7FC
7FD
7EE
058
7EB
00A
061
011
00B
010
7C7
7FB
7DA
7F6
042
74E
7D8
00E
7F7
01A
7EF
7EB
7E6
7EF
011
7E2
7CC
74B
014
7DC
7E3
02F
002
7F7
038
7EE
7E2
7DE
018
00F
7E9
753
7CC
7F6
7DD
057
005
065
7E1
6EC
7B8
7EB
7F8
003
7A9
7F0
004
7FF
7E3
7E7
75E
012
734
033
00D
7DB
006
092
028
018
01E
02C
009
7E7
003
7FE
018
7A1
00C
03E
7E2
7DE
7F2
7FB
011
01A
7F3
01A
00D
7F8
7ED
7F7
7F0
048
011
7FA
01A
7FD
7FE
7E4
7FD
008
7EA
009
7FC
043
01F
7F1
7F0
7F7
018
0B3
7DB
009
7A9
7E9
7D0
7DC
01F
7DA
068
020
00C
7E9
7CF
7F1
7DB
00E
7FD
015
7DF
7F3
006
7F8
034
008
7DE
7DD
736
7F0
008
017
779
79D
7EA
015
7F0
7D8
017
7F8
006
7DC
00E
011
036
049
7E4
7F7
011
786
007
018
7E0
7DC
7EF
016
7FF
004
005
01B
782
009
006
78C
7DD
065
000
006
7D3
7E5
015
7CF
7DF
00D
7F2
7FE
7ED
010
7EB
010
7EA
09F
7EE
7EA
011
7F0
79C
7D8
7FB
7FB
7F9
7E2
005
7FB
7FB
005
00A
7C1
7FC
006
00F
00C
75F
7F9
032
7E5
7EF
7E1
7F5
001
7E9
7AD
7E0
7FC
7F1
7FC
7F9
7D3
7DE
7D0
00A
00F
015
7D6
009
7F6
7F4
7C1
7F0
7F1
007
003
787
00A
7DC
7FA
785
013
7D0
006
01B
002
070
7F9
7DC
002
01E
7E5
7DB
7BD
7FE
7E2
065
001
001
7E9
7BF
02B
004
003
7EA
77D
7FE
001
002
015
7F6
00A
00B
01B
7FC
7F5
0B2
040
005
7F2
7F5
004
007
7FB
7E0
7EF
7F6
7DA
7EF
7DD
013
7F1
009
7EE
00F
7FF
004
06B
7FA
7EA
01B
7EF
7E4
7CD
064
7FD
7E4
013
7E2
00A
7DF
7F7
7ED
03D
7E4
7F3
01E
7EF
013
7E1
002
7E1
7DA
7E6
7E3
018
7E7
073
028
031
00F
01C
7FE
004
7DB
7F8
00A
7F3
7FB
014
7D8
7E8
7E5
7C0
7FB
7EE
7E6
7F1
7F8
7F9
002
00B
7D9
012
7DF
051
7ED
00D
7E2
00C
00E
071
003
7FA
024
005
053
001
781
017
7B0
7EB
7EF
7FC
742
00A
005
020
7FB
7EE
7F4
023
7E2
00A
7FA
006
016
023
7B8
000
01F
7E5
7DE
0B1
00E
7E4
7CD
012
7F9
001
7EA
00D
010
7E8
7BC
7DD
010
7D1
012
095
006
7EA
7F1
021
7E5
7C1
008
009
7E7
01A
018
019
7FD
7F9
00E
7ED
019
7B9
797
7F0
7FB
014
78B
7EA
003
017
7F9
00D
04E
019
76D
7DB
006
015
7E3
7F5
006
7F8
7F0
012
011
006
7E3
019
7F7
00C
7CF
00E
7FD
7FF
7FE
7F3
017
7F4
7C5
7D9
011
7FE
00A
7E2
7FF
008
7E8
7EF
7EE
7E5
7F2
7FB
7FA
7D9
004
7FD
7E8
042
7E5
7EF
7FA
7F4
7FD
79B
775
7DA
070
015
7F7
7DE
03E
7FF
07E
011
026
01F
054
004
7C6
009
000
7F3
7E2
749
003
7DA
78D
7E3
008
7F3
7DB
7F0
7DB
00E
017
7B0
00B
7F0
00E
7E6
7F7
7EC
7FE
022
7E7
7F3
02D
009
7E7
7FE
007
7D5
7EA
005
003
002
7DB
7E7
7E2
002
7FA
049
7DD
00F
7FA
7FF
015
01E
7ED
78A
768
7F0
7F1
7EF
07E
7E5
7FA
7E0
7F3
7E7
7F9
7F9
03E
7A7
7E3
016
01B
091
7F1
00A
01E
7F4
003
7F2
7EE
7F5
00E
7FD
015
7F3
7FB
01B
7D2
7E7
7FC
7F8
7F2
7DD
7E5
005
7E4
7F3
7FD
7DB
7EC
7F0
7E8
7F7
00F
03C
018
7DC
7FB
7E9
00E
7B8
00F
7FF
7E6
7E8
007
7AA
033
7E8
7A3
7E3
7B3
7DE
010
7DF
091
7E4
019
017
7B8
7E5
7ED
7D9
00F
7F3
7F1
006
7F8
008
06A
7DC
7EE
7D9
7FB
7E6
7E8
7F9
09A
791
7EC
00A
003
013
015
019
015
7DF
000
7ED
094
7C0
7DE
7BE
015
020
7F8
7DE
7FA
015
016
016
7F9
7EF
7DF
706
0A6
7D6
7F9
086
7F3
7FE
7FE
03C
74C
013
7E7
787
027
7EE
00F
7D2
7F1
7F7
7F8
017
742
7C8
7EF
016
006
03B
7C6
00D
7DA
7E0
015
009
015
7F7
7FE
005
008
033
7E9
7F2
7D5
7E0
00F
7DF
7BA
000
7FD
001
7F7
7DB
7DB
020
009
018
016
017
018
05B
7E6
7EF
012
012
018
01B
019
007
7E5
7C4
7D7
795
029
7FF
7C3
7F8
78A
019
7EC
7E5
058
7FD
7E7
7EB
6FA
7FA
7FD
7FD
015
00B
7DC
048
000
7EE
032
7E5
7FE
009
7DD
017
01A
01A
7D0
78E
009
7D4
7F8
00B
00A
7EA
7E9
7F3
006
7CB
00F
03F
00B
7E6
010
7BC
015
7D6
006
7E2
010
7DE
7F1
7D8
7F5
0B1
6DF
7E5
7EC
042
7EB
0DA
7FB
047
033
003
7E2
7DF
7FF
012
7F5
002
7D9
00A
778
000
019
097
7EC
010
022
7EA
7BF
7FF
7FB
7F0
00B
7F9
016
01A
7F9
7C6
00C
7F0
029
7E2
011
7E3
771
7E5
031
00A
7DD
7F8
7FB
7D6
01A
009
7E6
7DD
019
7FD
01A
05B
7F9
7C6
7F4
011
009
7D2
00B
7FD
7E3
7DF
007
040
00C
002
7B1
001
0CF
014
778
7EA
787
7E1
019
001
0B0
7EB
001
7EF
7DD
7E8
7EA
7D5
7FF
003
042
7EA
7FB
7F1
050
7FF
004
7E6
7AC
09A
7F8
7FC
006
7E5
003
01E
7E7
7DD
7E9
006
7D2
024
00C
7F3
013
7DF
018
01E
00B
7F9
017
7DA
7DF
021
7F6
00E
7D0
7DA
7FF
034
000
010
7E7
02B
017
7F5
015
7FF
033
004
7F9
7DB
012
7E1
002
7EF
042
7FC
7E3
018
7F3
734
01A
7E3
001
7E4
7DF
001
7F1
7E7
01D
776
7FF
00B
00A
7F2
7EF
7E0
7E7
003
7E6
011
7F0
7E4
018
014
024
7DA
01A
003
7E2
009
7DF
00C
7DC
7E0
011
00E
000
7BC
006
014
7DE
7E4
018
7F5
7EB
013
001
012
035
7E8
7BF
013
7F0
7E3
016
7EB
02D
7EE
009
7E8
009
7E5
7E5
011
7D9
7EB
7D6
020
7E2
7FD
7EF
7EA
7ED
7F9
7CA
031
008
00C
016
7FF
7E0
001
7FB
7F8
7FC
7EE
056
726
7FF
7E4
7F9
7E3
00B
00C
00B
7FD
008
00F
7E7
7E4
003
71D
00D
7F7
7EF
031
7F3
017
003
095
074
7E7
012
7C2
032
004
7FF
7F1
7DB
7E3
022
7E7
014
021
7E9
011
7E3
7AC
03B
021
7EE
7E9
00F
006
7E5
00D
7F8
022
008
7F3
00E
7EA
7EE
7E1
7C2
7FE
7E1
7F8
00A
009
7E8
007
7F0
7C4
7E0
7E2
010
001
00B
035
7E4
7E5
7F7
018
010
75E
7FC
7DF
00C
7E4
7E6
7F9
070
7EF
7D3
7E6
7A4
018
7C3
7DD
760
7F6
002
017
017
7DA
006
7EA
7E0
7EE
00F
067
003
7FC
06E
7F7
7F7
7EE
79E
016
7D9
019
776
725
016
00F
7FB
00E
7FA
7DD
7FC
7EA
7F2
7F1
034
029
01C
7DE
7F5
7D0
012
7F2
000
7EF
017
014
7FC
7DE
01A
7CC
7BA
7F4
013
7A8
7E3
062
7E6
7DC
74E
7EB
7FB
008
060
7EF
7FD
000
015
7ED
78F
01A
0AB
0C3
7DF
7E0
01B
018
7A8
00E
006
7CA
01E
01A
7D9
7F9
7EF
002
7D5
020
7F0
7F8
002
7E4
7D8
000
7B5
7F6
7F1
007
7E1
01E
7EC
7B9
01A
7F5
7DD
7EA
7EB
017
7E2
7D1
012
7F3
017
7C3
009
7EA
016
7F6
7E6
00B
0A9
01E
78A
7DD
7CC
7DF
7CD
7FE
79D
7E4
7F6
7EF
053
7EF
009
013
01B
00A
004
7AF
7F0
7F9
0E1
7F2
7DE
00B
6FD
7EE
006
01A
789
7B6
7EA
7E7
7F5
7F7
7D9
7FD
7FF
7F4
009
7C3
06D
7D8
7E7
7E4
002
7B3
7E3
7F9
7E6
7DF
7F8
7EC
009
7E2
7F7
027
7CF
00A
7DE
775
7F3
112
003
012
053
7FE
010
7BB
06C
7E9
7F6
019
018
01E
709
7F4
75B
051
7DF
7E1
00B
003
7CF
009
7EB
00D
7F7
01E
7D9
7F7
7F3
040
7E3
7FC
032
7FC
000
7DC
027
015
072
01E
01C
7E2
7E1
019
00B
004
7EA
7FF
014
7E8
7ED
013
7E6
7CA
7EF
7EE
00B
04A
017
00D
7E3
013
7E0
05D
020
002
7C7
7F7
009
001
7E4
000
7C9
7E3
7F8
01F
789
7E9
7C9
008
017
00D
7F8
06A
7EF
005
7AA
011
003
7F5
79F
7FC
7E4
004
758
7D1
7F2
000
005
7EF
000
7DC
7E1
7ED
001
00F
032
7D0
7F3
008
01D
7D1
7DA
016
7F6
7FF
7E9
01B
7EA
7E9
7DD
776
001
7DD
00D
7D1
7E8
0F9
7F5
019
7CA
7F1
008
7D7
7DD
005
015
7FE
7E2
7FB
793
011
7AA
7EC
000
011
7E9
7AA
7E8
7F1
000
7F7
7EB
7DF
7EB
7ED
007
7EA
7D8
7DA
01A
013
7E0
013
7CE
011
7B0
7ED
7F5
002
7FE
7F9
004
7BD
017
7E0
7F0
7EB
7E3
7F6
7F3
7EE
008
7EC
7E9
007
7D8
7E5
7E7
7EC
7FF
7BF
032
7DF
7E8
00D
7EC
010
7FC
7DD
059
7F7
00E
7FF
02C
017
7F2
002
005
00A
001
7A3
7DE
003
049
7ED
018
7FD
029
7F8
7E9
7F1
79E
79B
019
7F8
7D8
004
013
7F8
00F
7E3
00B
7C3
7F8
085
7F5
012
7EA
015
000
7EE
008
011
7EA
7D7
7EF
7FA
7EB
025
7AA
004
001
074
7DE
07B
002
734
7D4
007
7D9
7FF
076
7FA
7FB
00C
7EB
01C
06F
00E
69A
0DC
015
7FA
7F0
05B
793
011
000
7BA
7DB
00D
7E0
006
001
0A1
7B5
7DE
7E9
00B
7DF
006
014
00B
081
7EB
012
00B
7D8
00A
004
7F3
7DD
015
7F6
7F7
7DD
7E0
7EF
7DC
7E4
7D8
7FA
01E
7F8
00E
7F6
7D5
7D6
7F3
7BE
7E6
7B4
7E1
05F
001
7D0
7E3
7F7
001
01E
7F5
018
7EC
7BF
7FD
7EE
7E8
7F7
7B7
001
7F6
7CB
7F4
7E1
004
064
7D7
00F
01B
7A2
7F7
018
021
7F1
7FE
7EA
7F5
7E6
01A
017
017
057
76C
7FF
008
7FB
044
006
001
021
7DE
7E2
7F8
016
7FC
004
7E5
7E2
004
7FB
047
011
128
7F4
047
7EE
00B
7D9
01C
073
006
018
7F9
00D
7EF
734
006
76A
08F
009
7E9
005
796
7F4
7E6
7D8
00C
7EA
020
7E8
008
7EE
7AF
7FC
7ED
7E3
7F1
005
00B
024
7D9
038
022
003
7FA
7F7
7EB
7DA
7BD
7EB
009
00B
7ED
7EB
022
7F1
020
7E7
015
7F2
7E9
018
7EC
7F0
7F0
7D6
061
06C
7F7
7E9
7DF
043
7E4
7DE
7F0
7B7
012
7FD
7F4
017
016
7F8
7F2
7FA
7EB
019
04D
014
7E7
7ED
7F4
005
01C
7B6
7DF
006
001
7DB
78F
7DC
7FF
00E
014
002
7E8
00B
019
7ED
7F4
0CB
04C
7DE
007
004
009
7E3
01F
002
7EB
7E0
7EC
7ED
7DD
7E1
04D
00D
7E8
001
77D
019
136
7F0
7E0
00F
7E1
00D
7C3
0B2
006
7F7
7FE
00F
7DF
762
7FE
7B9
02D
7FB
7F5
7F2
00B
01A
7F1
7FC
7FC
7EB
012
7EF
011
016
006
00F
7F4
00F
7F4
004
7FE
7D9
009
000
7E6
7DF
7E3
7E7
7E0
011
7AA
018
7DE
7FB
012
7E9
7F3
7F3
01A
019
7E5
7F6
000
7DF
7E7
7ED
004
7F3
008
05C
7E1
7DA
7DC
027
7FA
7EC
014
7D0
008
018
7FA
78C
003
7DF
7E0
7E3
00E
00A
01C
7E8
020
015
019
7D8
00E
7A9
01B
7F8
004
7B4
010
7F0
7E3
7F2
7DE
016
7E6
7FD
7F8
00D
7D8
098
738
00E
7D5
7E1
016
7E7
00B
7FE
019
01A
7DA
7FD
7EC
7E2
787
02D
00E
7E5
0C2
7FA
041
7DB
041
028
7F5
7F4
7FC
036
003
7F7
7D7
004
7FA
005
7F0
040
031
7FF
7E8
003
79E
798
7FB
011
7F8
7E3
022
00D
7E1
7DD
7C8
01D
00E
01B
013
017
007
7FC
002
007
7F1
7DF
017
00D
009
00A
7FB
7E4
019
7EC
009
012
048
7DB
7FD
7F6
012
7FE
7A2
7DD
7F0
007
7C2
7D4
010
02A
7F5
790
001
7C4
7F5
7C8
7DE
796
016
7FF
7EA
00E
008
7D0
7EB
7E9
7F1
7DD
090
001
7F1
0A6
7E4
7F1
7E3
7DB
01C
00D
013
7B4
7CD
7F8
7E3
7EA
019
002
7E6
014
007
7DC
002
768
002
7D2
7CE
7F3
7DE
7F0
7EE
7F2
011
7F1
00D
7E0
015
01A
050
7F3
018
010
7BD
007
00D
7DC
08C
00E
012
002
7F8
05B
7EF
013
7E4
7F7
7E3
058
012
7BB
03A
7E9
002
006
7CE
76B
7F8
01A
7D2
011
7F1
7FB
7EF
7DB
7B5
001
05C
008
00E
7FB
7F8
7DF
013
03B
008
005
7E5
7D9
7E7
7FA
7F5
7DC
7DE
7DA
7EE
7F4
000
7F8
020
00F
7F7
7DF
7A7
7EE
7DD
7DF
7FF
7E8
044
04A
7FC
000
7F4
003
7DE
7BB
01A
064
009
014
7E0
7F6
7FA
02F
7E9
7F8
7D9
7D2
748
7F9
00B
7B0
7F1
7BE
00E
7E7
7F0
7E1
001
02D
01B
018
020
004
011
7F3
018
001
025
7D9
7F1
035
6C9
7FF
7F9
7DC
7E5
01C
7E1
00E
7EC
7F0
7BE
019
016
7EC
779
7ED
7D8
01A
7E8
7F9
070
7DA
778
7EE
007
7E9
7F6
010
015
7F3
00F
002
001
033
7FA
7E0
012
7FE
008
7E9
060
7A4
001
00E
7F6
01F
7E3
01F
7DA
7E4
012
04B
7D0
7FD
7F3
7FB
014
7CA
7F1
749
7EA
7EC
7DF
7E4
7E2
015
7D5
00B
7E2
002
019
7F3
00F
7EC
7D7
022
014
00D
7EA
01C
018
7D9
002
7E3
7F7
7F3
004
77A
7FB
00E
011
00B
7E8
77A
7F7
7DE
7EB
7A0
7F2
007
00B
7F8
7F0
7EF
053
00E
7DE
040
015
01B
00F
750
7DB
7E9
013
7E7
78E
7ED
7DE
7EB
7E6
7E9
018
012
7FE
00C
009
017
020
7F1
7FA
00E
00F
7F1
016
7C9
7E0
7EE
7F4
7E3
056
7F9
042
045
000
7FD
028
7F5
013
7E0
002
7F2
008
00A
7F8
01F
7DF
7EF
7FB
7E8
7FB
030
7F0
021
002
7DC
7D9
7F8
7E7
7F7
00D
01B
7FB
7FB
016
7EE
007
006
7F8
02E
005
011
7F6
7F7
005
036
012
021
014
7FF
7E5
7FB
015
00F
040
006
00D
7FD
7E4
7F0
01D
016
7D2
011
7F0
015
042
7F6
7FE
013
00F
7D3
04A
7D3
01A
06E
7FB
02B
004
7E5
7FE
7BB
7DF
00B
7E4
009
7E7
005
00D
7E2
7ED
005
7F3
7FE
019
01D
00D
01D
00B
047
7EE
019
7D9
78F
761
7E1
008
017
7F6
004
7EC
000
7F4
7E2
7D8
7F6
08D
014
009
7EF
7F1
7E4
00B
7E0
008
005
004
7E0
7D9
00F
78A
7E8
017
7ED
04C
7FD
092
7F8
7DE
771
00B
7E4
7CD
02B
00E
7EB
7E2
7DA
7FC
7D8
011
7E2
0DF
008
7DD
7FE
7E7
7C2
016
7E5
7FC
7E2
7F0
7EB
000
7F3
7D5
7E6
7F9
7ED
7E2
014
007
771
01A
058
7FA
7E2
009
007
7FC
00C
7F4
7FB
015
003
7CF
7EA
7B0
7F6
7E0
7F2
01A
008
7D6
7F3
006
010
7F4
7F9
05D
092
019
78F
01A
08B
017
7BD
015
0CB
01A
7EB
001
06E
7FC
7C7
7EA
7F9
7F8
7E4
7EC
7F6
00A
08E
004
7E6
7E8
095
7DD
00F
7F5
04F
7FB
7EC
012
7FD
7D8
7FF
7EF
003
7E0
7E3
7EF
007
7C8
00F
001
7F6
7E1
7E0
008
7E1
01B
7F0
7FB
01E
7F9
009
7E3
7CB
7ED
7E1
020
7D9
0AE
7F3
757
03A
013
7EC
014
7FB
7F0
7DB
7DC
7F4
7EA
75C
7FD
7DC
7E5
00C
7F1
01B
000
01B
7DD
00D
7D5
7EE
7E7
7EE
7E3
7FA
7B9
7F3
7E4
012
012
7FE
7E3
022
7E5
7D1
002
7DD
7F2
7EB
7F1
7D9
017
7E8
7F1
7FF
7E8
7E3
7EB
000
00E
022
7F2
008
02A
00F
7F2
006
7F7
009
013
7C8
01E
7ED
00E
7FA
7EF
7E6
7FF
7BE
01A
000
01A
015
7E3
7FE
005
000
01A
7F6
010
001
002
025
7E1
7ED
023
79E
7F1
7EA
7D9
76B
738
7D8
7ED
7FE
7E8
00A
7FB
7EC
7F4
00D
7DE
097
071
7E3
7E2
7E2
001
7D1
011
7F1
7EA
7DC
7F8
7E9
7DA
7EE
7C9
7C8
01F
7DF
7F1
016
0B9
7F8
7D7
7A7
7EA
7DE
7DB
049
7F0
7E2
7C3
7E6
7F5
02E
7DA
009
10F
7ED
01A
021
00F
7B2
7E4
7DB
7D1
7EE
7FD
003
010
7E7
025
7D5
7C4
7E4
7EA
7FE
016
7A7
7E5
08B
01A
008
013
7F0
7E6
7EC
796
006
00A
7EB
7FB
7F7
7D4
7EA
7C8
7F0
010
00A
7F8
7E4
7EC
025
7F5
01A
7A0
02A
7FB
740
7E1
7E4
7F7
7E0
7F4
00B
7F7
00C
7FF
052
7DC
7E0
7E5
00C
7DE
004
7A2
7EF
7F1
086
7E8
7FA
017
7CE
7E0
014
004
7D8
7FB
7FF
01F
015
00A
005
7E8
7FE
00E
00A
7C3
058
756
00D
7E6
7ED
013
002
7F1
021
001
7E0
7F5
7F9
7E0
00A
7BC
035
00B
004
7D5
003
0C5
7E7
012
7DA
7F4
7E5
7C8
057
012
7E9
7FB
7F4
00B
72E
01A
79D
7FC
7FE
7FC
010
026
7EA
7EF
7E0
7E5
000
7EE
007
002
7F2
7F4
7FF
7F5
039
7ED
004
7F6
021
00E
7E7
002
00C
00B
01B
017
7DA
7EE
7EB
01D
012
002
7EC
011
7D9
7F1
7FE
7ED
005
7CF
7F2
7F5
7FC
7FA
7D4
014
7F6
7EF
026
00E
785
006
7F4
7E9
061
7E2
002
010
76F
00C
7F4
7EA
7DC
7EF
7DE
024
7FB
01A
002
01B
7D6
00F
73E
7F5
015
7F2
7E2
7EF
001
7F1
7F8
7F1
016
7EA
010
000
7F2
7F8
00F
02A
7F8
010
01B
00E
7DE
020
7FD
7EF
7E4
7E7
7E8
7E9
00C
7EE
001
7E2
002
024
7F6
007
7F2
03F
7D0
00A
7DE
7F1
7E2
012
019
004
7F8
7DD
01D
7EB
00A
02D
018
005
001
7EF
010
7FC
7D5
7DC
7ED
00D
018
017
000
7EF
00A
7E1
00B
7E3
7FB
7DC
012
010
7CD
00A
000
019
015
7EB
000
7FF
7F8
7FF
7FE
00F
7F3
006
7F5
7EF
000
017
000
7F7
00C
7E8
7F0
008
7FA
7F0
000
011
7B0
7F2
7D2
013
7D3
001
001
7EA
7EF
7E6
7F4
7DF
7EA
7EB
7E5
7E1
00D
7C0
00C
7FF
024
00D
7FB
7E4
001
00C
7E2
7FC
7AF
6FC
008
7EA
7CE
005
7EB
7EB
010
7F2
7F6
016
024
764
017
7F7
7F2
08F
7E8
006
017
016
7E4
7CE
7FB
7DB
7FE
760
7E6
7F6
7F7
7E4
7E8
066
7FD
7CC
7EC
01A
008
047
772
7ED
7EE
7DE
7F2
013
7AA
017
74C
7BA
007
7EB
7DB
055
012
7F0
7F5
7FB
003
008
7EF
7FA
013
7D4
7F0
7BA
7E6
7D9
004
008
027
7EF
05F
01E
7E4
7E2
008
003
016
7F2
7F6
7E3
7F0
01D
7E9
7BE
00F
042
018
7F1
002
017
7F2
014
7B8
7FE
7FB
0A0
7B8
7ED
011
7FC
7CA
7E8
04A
7FF
036
7EB
001
7FD
77D
7F9
7FC
00D
7DA
010
014
7B7
7D9
7FB
039
7F0
7DC
7D8
750
7E6
010
00C
065
7E1
7EA
010
7F5
7EE
7ED
017
7DA
7DD
00C
7F2
02C
6F3
7F8
016
7FC
74D
016
006
7F3
7DE
7E8
004
7F9
00D
7FC
764
771
014
002
7E8
009
7CC
007
734
0D9
011
006
7EB
7A0
7F6
004
009
009
7E4
786
7F1
065
73B
004
015
7F1
771
0BB
7F0
7D9
7C6
00A
7E1
002
006
00B
014
00C
7C9
00D
018
7D8
00A
05B
017
751
004
7EB
7F5
027
008
7E6
7E0
7DC
01F
7DB
011
7E4
7CF
018
7DE
023
008
7F7
7EE
7D9
009
7DB
01B
7D8
79F
7B9
005
0B5
7E0
763
7F3
7C5
000
7FF
00E
7F8
7FC
057
7F5
018
003
7EE
00D
7F4
7EF
7F9
7F8
09A
019
026
7DD
711
7D5
7E5
014
7C9
7D6
013
7E0
7E8
7FB
7FC
7F5
013
00E
00A
00C
7C9
00E
7EC
009
005
043
7F9
7E5
7DF
00C
7F5
7FD
7F0
013
000
7B1
037
001
012
058
7F3
7BF
016
049
034
7F6
7EA
7EF
7FB
7FA
00D
002
002
7EB
789
7D9
7CE
032
7FB
7FF
7FA
01C
01A
016
009
7EF
7FB
7E9
009
7FA
01C
7D2
7DF
00F
00E
7FE
001
005
05A
7DA
7C4
7E5
00C
7FA
006
017
7E8
7F4
7DF
7E5
7F5
016
003
012
7FF
00C
7F2
7F7
7DC
00D
7E9
7FC
7E5
7FC
7FF
05F
7C3
7FD
02B
7E0
008
7F3
01F
007
7EE
008
7E6
016
02C
7E3
004
7F0
005
7E1
012
7BA
019
00C
7E3
7FD
7DF
7F8
7C4
7EA
7FF
009
7E7
7F6
00D
7F8
000
7EE
7EC
010
7E4
7FA
7E7
7FB
7D4
091
7AD
7BF
006
05A
7F5
009
7D6
7FD
01A
019
018
7ED
7E2
087
7BD
7E9
7EB
7C4
012
025
7FE
071
7C8
7FC
7E6
01E
040
7FF
000
009
7E1
002
018
00B
01D
025
7FB
7E0
01D
769
7D6
00A
7E8
7D8
7E6
7FD
016
7EF
014
79E
7C3
05B
013
005
7E4
005
7A5
7F8
025
7F6
7E4
7E4
7FD
7F6
00A
7E3
009
003
018
008
7FF
064
013
77A
00A
013
7ED
7E8
00C
001
7EA
003
7FF
010
03B
00B
020
008
09F
7E7
03F
016
7B0
7EF
00C
014
07F
7E7
7BC
7EB
004
003
7EF
024
7DC
020
79D
019
7CD
000
023
7F8
010
019
7E5
00A
003
009
000
018
007
7E3
7DA
7F6
7DA
7FF
72A
020
7FC
7F4
7ED
7F7
014
7F8
7F2
016
00E
7FD
7FE
016
7E7
05A
7E8
01C
011
7FF
7EF
7C4
003
0BB
7AA
016
006
7F2
7BB
7F5
7EE
006
7F3
001
055
7E8
01E
008
7E1
7E4
7FC
78F
733
7F7
004
7E9
010
7E9
7F3
7DA
00A
72F
7EF
02E
00A
00C
7EA
007
7A9
7FB
006
7F0
014
015
004
7DA
7FE
7F9
01A
007
7DD
7E8
7E4
038
7F7
7D8
7F1
013
7F6
008
7F1
00D
7F3
7FF
7DE
02B
032
7FD
039
7FF
038
7E5
7E3
00E
05F
7E8
00B
011
066
7DC
7EC
7DA
003
7EF
013
76C
7F6
013
7F6
01A
7D0
7F9
7FA
7FE
7E1
002
76F
7DD
7DB
00E
009
7F1
009
7FE
015
000
7EC
00D
025
72F
7ED
7EB
013
055
007
7F1
003
018
7F5
7F0
013
019
00D
797
7EF
7E9
7EA
08F
7FA
099
7F7
7B8
7E7
7F3
7DF
7D5
7F8
7E2
014
7E5
7EA
01D
7C7
009
78D
082
7FB
7E9
009
068
02A
7F0
7D8
7F0
7E5
003
7DF
7F9
7E6
7E9
7EF
7F0
7ED
001
7F4
009
7FA
00A
045
7DC
7E2
006
7E6
7E6
7FD
00F
007
7EB
7E5
004
7E5
7E7
7F5
027
7DA
7F7
002
7FA
005
01D
023
011
7DD
00D
00B
00A
7E6
003
7F1
7F6
7C6
7E1
7CF
7EC
000
7DC
7DD
00F
7BF
010
7F6
7EF
7E2
062
7F2
7F2
014
013
006
013
785
7E2
7FB
7F4
7B0
7BA
7F1
017
7ED
7FE
014
7F9
7EC
002
7F2
7F9
7CA
7F9
7F9
017
7DA
7F5
7E5
7F2
7FD
018
7EF
7F3
7FC
000
7FB
014
7DB
004
018
03D
019
7FE
7DB
021
7DF
009
016
7E9
000
7E1
7E8
7D1
00F
7FE
7C9
00E
7E3
012
014
00E
7E5
04B
7F9
005
015
7D1
018
00F
017
019
7F4
7C6
01A
006
7F2
00C
7F8
7FA
002
7EA
7FD
7EE
014
7FE
018
00A
7FB
7E1
013
7E3
018
004
7FC
01E
007
01C
019
7E8
7FF
015
7F0
014
7FD
7F1
7D4
03E
04F
000
794
7EB
009
008
02D
7DB
7E0
7F2
7F9
7E1
7E2
00B
7F2
00F
018
7F6
010
7C5
013
00A
7FF
7F6
01D
7FA
7E2
7EF
016
023
7B7
048
009
016
016
7F0
7E2
005
00F
003
007
7F5
7E3
7EC
7AF
7D1
00C
766
7FF
7E7
008
7DD
7E4
7FD
7F5
7F4
7E1
06B
72A
7EE
019
025
7E6
025
7FF
7D6
012
003
000
7F2
7A5
00D
00A
7D0
007
7E8
043
7FB
01E
017
011
017
7F5
7FD
7DC
007
7DD
7D9
7E5
002
7F0
015
7E1
06B
7FB
01A
012
7EB
011
7FD
77D
010
7D7
7FF
7FF
018
7E3
7D4
7FD
7C9
7F8
7EF
005
006
7EE
07B
7F2
7F2
7E6
7F0
7F5
02A
7ED
010
7F8
006
7DE
03A
04B
7F1
780
7DB
020
7FC
703
008
7E1
01B
00F
7F9
047
7FB
7ED
00A
7E5
7DB
7FB
044
7FC
00A
7FC
020
00D
007
00C
027
7FC
016
012
7F8
7FC
7E8
7E5
7EB
7FA
7EE
7E9
7DC
7F1
7EF
7D9
00D
7EC
7DE
010
003
00B
008
7E0
7DF
019
7E5
7F8
009
012
7E7
016
004
7FB
7ED
7DE
011
7F5
014
026
7F0
7DE
00A
009
015
7F9
7FC
004
7E3
7D7
00A
006
000
009
00A
017
7EF
006
7EA
7F5
7E3
004
018
7DC
7E6
005
7D8
7E9
009
7F6
7EA
7FD
7E5
008
7E1
7F0
7FD
7E9
7E2
014
00E
7E1
7DD
7FB
7E9
7D9
7F7
7E8
016
001
7FE
015
7F7
7F4
021
7E2
7F8
7F3
019
7FF
013
020
7DE
024
7FD
013
7FF
7FD
7F5
7E6
7E0
7FE
00C
019
7FE
7FC
007
01A
7EE
007
016
7EF
7DC
014
013
7E0
001
00C
00F
7F2
016
7B4
055
7E2
020
7F0
7F9
00E
7E9
01C
014
004
7D4
070
7D7
000
7CC
002
084
7DC
009
006
7E6
018
7EA
007
00E
7EC
011
040
7FE
7EB
7B4
017
104
004
7E0
792
7EB
018
7C4
075
7DF
007
7E2
7E9
000
6C8
012
788
01F
007
003
7FD
7C4
03C
7EB
010
7CE
00E
007
7E7
009
7E7
79C
7FF
023
01E
00E
7EB
7ED
036
7FE
7A2
7FD
7F4
7EF
005
7EE
005
7CC
7F8
7F8
019
7EC
7E9
01D
7F1
7FE
001
012
7ED
7A3
00A
7E0
7F2
7FF
7F5
7D2
01A
015
022
019
7EC
015
7CF
7DF
04E
007
7E2
006
75B
7F7
02E
001
7D9
00B
016
008
7F2
00A
789
002
7E0
01A
6FB
7FF
014
00B
048
02A
00B
7FB
7F9
7F6
00D
00F
7EF
7FF
01A
7E4
04E
7FD
7FF
7D9
7DC
02E
7E6
7F2
7E5
00E
00F
001
01B
7F0
013
7D4
033
7F7
004
7E2
7E6
049
005
7E1
0BE
7F9
7EE
7A7
7EB
7E6
7F5
7E0
014
00C
02B
7F1
7D0
7AA
7FA
7F2
017
06A
010
7DA
007
7D8
7FF
007
7F9
016
7F7
014
03A
7D2
7E3
003
015
7F9
7D6
7EE
04D
7F2
7EB
7E8
007
7E4
7EF
7F7
007
7EB
019
007
7E5
79B
7E2
005
002
7EA
7FF
7A0
7EE
7E3
7D2
7E7
7F2
053
7BF
7FE
7C3
020
7BB
7F4
773
7DB
715
005
01F
7F8
00A
7F5
7DA
7E7
7DE
014
014
03A
7F6
7DF
067
7DF
7F7
7FD
031
7DA
7FF
7F7
788
065
018
005
7D8
014
00A
002
013
7EC
7EF
012
7C0
07C
7DF
7C1
7EB
03A
7E3
7E4
019
7FA
003
000
7FB
7FD
7EF
7E0
7F7
7EB
006
05D
7E2
029
7F9
7CE
04E
7F2
7D9
7FF
7CB
7E9
002
7D1
7F5
008
7A8
7DD
746
057
01A
00B
020
7FA
003
7F1
7DC
000
7FA
019
7E8
7E5
7E5
01F
7EE
7DD
00B
001
01B
7F7
02B
008
7ED
00E
01D
016
003
7F0
7E4
7FD
012
7EC
016
7FF
7E1
7BF
7FE
78D
7EB
012
7DD
7F8
7F5
7EA
7F8
01A
7FB
7C6
093
00F
7CB
7FE
05B
001
019
7F8
004
7EA
7DF
7F6
0DD
011
7CD
003
01C
7DF
01C
7F4
00C
7F7
016
7E1
7F5
7FA
031
011
00A
7F7
7ED
7B9
7F5
7FF
00A
7E9
007
7E5
001
010
003
7E8
083
036
7EA
007
003
041
7E7
7FA
7F8
008
001
004
7E3
008
7E8
081
773
01C
017
09A
003
028
009
6F4
7D9
7F2
012
7DA
0DB
00A
012
7E9
013
006
7E1
00B
6D5
169
7FD
7FF
003
051
7B9
7EB
7F1
7B5
7F9
016
01A
011
015
0F8
7FB
79B
005
7E5
00B
003
7D5
01A
7DC
7F4
005
01A
00A
017
7EB
7D8
015
7FE
008
7D5
001
040
015
7B2
7D8
017
007
7A1
7E3
7E1
7C7
7E7
013
065
018
7FC
00D
019
0BA
7E6
7D0
7FE
788
7FE
7F2
00B
7AC
7E6
7DE
7F7
7E4
7F9
007
06E
013
01D
7ED
027
7E3
7EA
014
7F9
00C
7ED
7A3
75F
00E
7EA
7E0
7ED
7E3
016
7F6
7E0
00F
7E5
7E6
051
7FF
7F9
7E3
005
00D
018
00C
7FE
005
012
011
7E8
7F2
7DD
016
7DD
017
043
7F9
0BB
7EB
7AC
7C8
7FA
002
